{
  "version": "1.0",
  "truncation": null,
  "padding": null,
  "added_tokens": [],
  "normalizer": null,
  "pre_tokenizer": {
    "type": "ByteLevel",
    "add_prefix_space": true,
    "trim_offsets": true,
    "use_regex": true
  },
  "post_processor": null,
  "decoder": null,
  "model": {
    "type": "BPE",
    "dropout": null,
    "unk_token": null,
    "continuing_subword_prefix": null,
    "end_of_word_suffix": null,
    "fuse_unk": false,
    "byte_fallback": false,
    "ignore_merges": false,
    "vocab": {
      "!": 0,
      "#": 1,
      "$": 2,
      "%": 3,
      "(": 4,
      ")": 5,
      "*": 6,
      ",": 7,
      "-": 8,
      ".": 9,
      "/": 10,
      "0": 11,
      "1": 12,
      "2": 13,
      "3": 14,
      "4": 15,
      "5": 16,
      "6": 17,
      "7": 18,
      "8": 19,
      "9": 20,
      ":": 21,
      ";": 22,
      "?": 23,
      "A": 24,
      "B": 25,
      "C": 26,
      "D": 27,
      "E": 28,
      "F": 29,
      "G": 30,
      "H": 31,
      "I": 32,
      "J": 33,
      "K": 34,
      "L": 35,
      "M": 36,
      "N": 37,
      "O": 38,
      "P": 39,
      "Q": 40,
      "R": 41,
      "S": 42,
      "T": 43,
      "U": 44,
      "V": 45,
      "W": 46,
      "X": 47,
      "Y": 48,
      "[": 49,
      "]": 50,
      "_": 51,
      "a": 52,
      "b": 53,
      "c": 54,
      "d": 55,
      "e": 56,
      "f": 57,
      "g": 58,
      "h": 59,
      "i": 60,
      "j": 61,
      "k": 62,
      "l": 63,
      "m": 64,
      "n": 65,
      "o": 66,
      "p": 67,
      "q": 68,
      "r": 69,
      "s": 70,
      "t": 71,
      "u": 72,
      "v": 73,
      "w": 74,
      "x": 75,
      "y": 76,
      "z": 77,
      "¢": 78,
      "¦": 79,
      "¨": 80,
      "©": 81,
      "ª": 82,
      "´": 83,
      "»": 84,
      "¿": 85,
      "Ã": 86,
      "â": 87,
      "ï": 88,
      "Ċ": 89,
      "č": 90,
      "Ġ": 91,
      "Ģ": 92,
      "Ħ": 93,
      "Ķ": 94,
      "ĺ": 95,
      "Ļ": 96,
      "ľ": 97,
      "Ŀ": 98,
      "Ġt": 99,
      "Ġa": 100,
      "he": 101,
      "čĊ": 102,
      "ččĊ": 103,
      "in": 104,
      "re": 105,
      "Ġw": 106,
      "Ġm": 107,
      "Ġthe": 108,
      "Ġo": 109,
      "Ġs": 110,
      "nd": 111,
      "ed": 112,
      "er": 113,
      "at": 114,
      "ou": 115,
      "Ġb": 116,
      "en": 117,
      "Ġf": 118,
      "ĠI": 119,
      "Ġand": 120,
      "Ġh": 121,
      "on": 122,
      "Ġc": 123,
      "Ġof": 124,
      "is": 125,
      "it": 126,
      "Ġd": 127,
      "Ġto": 128,
      "es": 129,
      "Ġp": 130,
      "or": 131,
      "Ġth": 132,
      "Ġin": 133,
      "an": 134,
      "as": 135,
      "ar": 136,
      "ing": 137,
      "Ġmy": 138,
      "Ġn": 139,
      "Ġl": 140,
      "Ġe": 141,
      "ll": 142,
      "om": 143,
      "Ġha": 144,
      "ic": 145,
      "Ġbe": 146,
      "ion": 147,
      "Ġre": 148,
      "ut": 149,
      "Ġhe": 150,
      "le": 151,
      "âĢ": 152,
      "st": 153,
      "Ġwh": 154,
      "ve": 155,
      "ent": 156,
      "ce": 157,
      "Ġy": 158,
      "ot": 159,
      "se": 160,
      "ly": 161,
      "Ġwas": 162,
      "Ġme": 163,
      "Ġthat": 164,
      "ĠččĊ": 165,
      "ld": 166,
      "ow": 167,
      "ur": 168,
      "Ġyou": 169,
      "gh": 170,
      "im": 171,
      "Ġg": 172,
      "ct": 173,
      "ver": 174,
      "ith": 175,
      "Ġon": 176,
      "Ġwith": 177,
      "Ġu": 178,
      "ir": 179,
      "al": 180,
      "et": 181,
      "red": 182,
      "ght": 183,
      "Ġfor": 184,
      "id": 185,
      "ro": 186,
      "Ġhad": 187,
      "ess": 188,
      "Ġde": 189,
      "ri": 190,
      "Ġas": 191,
      "Ġit": 192,
      "Ġwe": 193,
      "Ġnot": 194,
      "ich": 195,
      "Ġwhich": 196,
      "ain": 197,
      "Ġcon": 198,
      "Ġbut": 199,
      "ould": 200,
      "Ġan": 201,
      "ay": 202,
      "ĠT": 203,
      "Ġhis": 204,
      "her": 205,
      "ation": 206,
      "pp": 207,
      "ĠâĢ": 208,
      "ab": 209,
      "Ġst": 210,
      "ter": 211,
      "Ġfe": 212,
      "ĠâĢľ": 213,
      "ge": 214,
      "Ġsu": 215,
      "Ġex": 216,
      "ad": 217,
      "Ġby": 218,
      "am": 219,
      "ill": 220,
      "Ġv": 221,
      "ect": 222,
      "rom": 223,
      "if": 224,
      "li": 225,
      "Ġsh": 226,
      "Ġat": 227,
      "il": 228,
      "ore": 229,
      "ch": 230,
      "ure": 231,
      "Ġse": 232,
      "th": 233,
      "Ġfrom": 234,
      "our": 235,
      "Ġher": 236,
      "nt": 237,
      "Ġwhe": 238,
      "Ġso": 239,
      "ul": 240,
      "Ġthis": 241,
      "Ġhave": 242,
      "est": 243,
      "ĠThe": 244,
      "ight": 245,
      "all": 246,
      "ĠA": 247,
      "Ġis": 248,
      "Ġdis": 249,
      "ard": 250,
      "ved": 251,
      "qu": 252,
      "ate": 253,
      "res": 254,
      "ound": 255,
      "Ġal": 256,
      "oo": 257,
      "Ġwere": 258,
      "ea": 259,
      "sed": 260,
      "ind": 261,
      "âĢĿ": 262,
      "Ġr": 263,
      "la": 264,
      "ome": 265,
      "ear": 266,
      "reat": 267,
      "Ġun": 268,
      "sel": 269,
      "ĠS": 270,
      "em": 271,
      "ous": 272,
      "end": 273,
      "Ġyour": 274,
      "Ġwhen": 275,
      "Ġsp": 276,
      "Ġsa": 277,
      "ĠH": 278,
      "ke": 279,
      "Ġwor": 280,
      "Ġman": 281,
      "ĠM": 282,
      "ence": 283,
      "able": 284,
      "Ġhim": 285,
      "Ġall": 286,
      "Ġor": 287,
      "ĠW": 288,
      "art": 289,
      "Ġwho": 290,
      "Ġpro": 291,
      "Ġcom": 292,
      "ust": 293,
      "hed": 294,
      "ant": 295,
      "el": 296,
      "um": 297,
      "cc": 298,
      "self": 299,
      "Ġper": 300,
      "Ġk": 301,
      "Ġapp": 302,
      "Ġch": 303,
      "ol": 304,
      "ity": 305,
      "Ġdes": 306,
      "ive": 307,
      "us": 308,
      "ff": 309,
      "Ġam": 310,
      "very": 311,
      "ven": 312,
      "Ġint": 313,
      "ĠĠ": 314,
      "ount": 315,
      "ame": 316,
      "age": 317,
      "ered": 318,
      "ove": 319,
      "Ġag": 320,
      "ag": 321,
      "ted": 322,
      "ness": 323,
      "ĠB": 324,
      "op": 325,
      "Ġne": 326,
      "ance": 327,
      "os": 328,
      "Ġwill": 329,
      "Ġup": 330,
      "Ġim": 331,
      "ost": 332,
      "ap": 333,
      "ud": 334,
      "ath": 335,
      "Ġmis": 336,
      "ĠE": 337,
      "Ġar": 338,
      "Ġare": 339,
      "Ġshe": 340,
      "Ġcould": 341,
      "ast": 342,
      "Ġbeen": 343,
      "fore": 344,
      "ong": 345,
      "ort": 346,
      "and": 347,
      "ated": 348,
      "Ġtr": 349,
      "Ġwould": 350,
      "Ġone": 351,
      "Ġen": 352,
      "ĠC": 353,
      "Ġtheir": 354,
      "Ġj": 355,
      "ci": 356,
      "Ġno": 357,
      "ĠF": 358,
      "Ġdo": 359,
      "ish": 360,
      "un": 361,
      "ĠG": 362,
      "ine": 363,
      "ather": 364,
      "ood": 365,
      "Ġrem": 366,
      "ought": 367,
      "ment": 368,
      "Ġthey": 369,
      "urn": 370,
      "ice": 371,
      "ions": 372,
      "ject": 373,
      "Ġmore": 374,
      "ber": 375,
      "ck": 376,
      "ose": 377,
      "ĠP": 378,
      "Ġif": 379,
      "nder": 380,
      "are": 381,
      "wn": 382,
      "Ġexp": 383,
      "ings": 384,
      "Ġshould": 385,
      "ig": 386,
      "Ġcan": 387,
      "Ġfeel": 388,
      "one": 389,
      "ep": 390,
      "ies": 391,
      "oy": 392,
      "âĢĻ": 393,
      "Ġfri": 394,
      "Ġcomp": 395,
      ".âĢĿ": 396,
      "ther": 397,
      "ist": 398,
      "ang": 399,
      "Ġnow": 400,
      "ced": 401,
      "ward": 402,
      "Ġent": 403,
      "Ġsome": 404,
      "ers": 405,
      "Ġkn": 406,
      "ie": 407,
      "Ġab": 408,
      "ful": 409,
      "ire": 410,
      "Ġbefore": 411,
      "Ġthem": 412,
      "Ġpas": 413,
      "Ġend": 414,
      "Ġmyself": 415,
      "od": 416,
      "Ġday": 417,
      "led": 418,
      "Ġthese": 419,
      "Ġli": 420,
      "Ġret": 421,
      "Ġany": 422,
      "pt": 423,
      "Ġfather": 424,
      "Ġcont": 425,
      "ĠHe": 426,
      "Ġfriend": 427,
      "ak": 428,
      "ime": 429,
      "Ġacc": 430,
      "ene": 431,
      "ĠBut": 432,
      "Ġob": 433,
      "Ġmiser": 434,
      "au": 435,
      "Ġwork": 436,
      "Ġour": 437,
      "Ġthan": 438,
      "ations": 439,
      "ife": 440,
      "su": 441,
      "Ġqu": 442,
      "Ġupon": 443,
      "Ġother": 444,
      "Ġfir": 445,
      "Ġinto": 446,
      "ry": 447,
      "ĠY": 448,
      "Ġey": 449,
      "Ġonly": 450,
      "Ġcons": 451,
      "ble": 452,
      "âĢĶ": 453,
      "Ġits": 454,
      "Ġad": 455,
      "Ġmight": 456,
      "Ġco": 457,
      "ret": 458,
      "ĠMy": 459,
      "Ġover": 460,
      "ough": 461,
      "eth": 462,
      "Ġatt": 463,
      "ra": 464,
      "ĠO": 465,
      "Ġdid": 466,
      "Ġbec": 467,
      "wards": 468,
      "Ġthought": 469,
      "Ġyet": 470,
      "Ġown": 471,
      "ook": 472,
      "Ġsc": 473,
      "Ġcount": 474,
      "Ġlife": 475,
      "Ġfa": 476,
      "Ġhapp": 477,
      "Ġres": 478,
      "Ġind": 479,
      "Ġevery": 480,
      "lect": 481,
      "other": 482,
      "Ġgreat": 483,
      "ere": 484,
      "Ġthen": 485,
      "erv": 486,
      "ake": 487,
      "ied": 488,
      "less": 489,
      "Ġmay": 490,
      "Ġref": 491,
      "ĠTh": 492,
      "Ġfirst": 493,
      "ng": 494,
      "ĠL": 495,
      "Ġcreat": 496,
      "Ġdist": 497,
      "out": 498,
      "ise": 499,
      "ree": 500,
      "ide": 501,
      "Ġstr": 502,
      "Ġdisc": 503,
      "Ġeyes": 504,
      "ched": 505,
      "ild": 506,
      "lo": 507,
      "ne": 508,
      "Ġpre": 509,
      "ark": 510,
      "Ġimp": 511,
      "ile": 512,
      "Ġpla": 513,
      "Ġrep": 514,
      "Ġsaid": 515,
      "Ġknow": 516,
      "ĠIt": 517,
      "Ġnat": 518,
      "Ġthere": 519,
      "Ġshall": 520,
      "Ġagain": 521,
      "fter": 522,
      "Ġpres": 523,
      "uten": 524,
      "Ġtime": 525,
      "orr": 526,
      "Ġwhat": 527,
      "ited": 528,
      "Ġdest": 529,
      "Ġgr": 530,
      "Ġro": 531,
      "Ġbr": 532,
      "Ġfound": 533,
      "Ġbeing": 534,
      "ade": 535,
      "ress": 536,
      "Ġreturn": 537,
      "ily": 538,
      "ary": 539,
      "Ġeven": 540,
      "Ġsaw": 541,
      "Ġaff": 542,
      "Ġtowards": 543,
      "Ġpo": 544,
      "Ġnight": 545,
      "ents": 546,
      "berg": 547,
      "utenberg": 548,
      "ning": 549,
      "zab": 550,
      "lizab": 551,
      "lizabeth": 552,
      "Ġmost": 553,
      "so": 554,
      "ue": 555,
      "Ġmind": 556,
      "Ġhow": 557,
      "Ġheart": 558,
      "ious": 559,
      "we": 560,
      "Ġcl": 561,
      "itt": 562,
      "Ġlove": 563,
      "ained": 564,
      "ĠElizabeth": 565,
      "ĠD": 566,
      "Ġmon": 567,
      "Ġhop": 568,
      "Ġthose": 569,
      "llow": 570,
      "ict": 571,
      "ott": 572,
      "Ġform": 573,
      "oss": 574,
      "lt": 575,
      "ory": 576,
      "anc": 577,
      "Ġever": 578,
      "Ġunder": 579,
      "iv": 580,
      "Ġpr": 581,
      "Ġrec": 582,
      "Ġsee": 583,
      "ert": 584,
      "ens": 585,
      "ened": 586,
      "Ġinc": 587,
      "imes": 588,
      "ears": 589,
      "Ġ1": 590,
      "Ġaw": 591,
      "Ġdre": 592,
      "Ġlong": 593,
      "Ġrest": 594,
      "roject": 595,
      "Ġwhere": 596,
      "ally": 597,
      "ĠGutenberg": 598,
      "Ġear": 599,
      "Ġdep": 600,
      "Ġdeath": 601,
      ",âĢĿ": 602,
      "Ġpur": 603,
      "ef": 604,
      "ite": 605,
      "Ġwhom": 606,
      "Ġafter": 607,
      "Ġcott": 608,
      "ange": 609,
      "Ġsuff": 610,
      "ired": 611,
      "Ġocc": 612,
      "Ġpart": 613,
      "urd": 614,
      "Ġfelt": 615,
      "ĠProject": 616,
      "Ġbl": 617,
      "Ġlo": 618,
      "ick": 619,
      "ection": 620,
      "ign": 621,
      "ined": 622,
      "Ġinst": 623,
      "Ġsuch": 624,
      "ds": 625,
      "ĠN": 626,
      "Ġfi": 627,
      "ished": 628,
      "orm": 629,
      "ank": 630,
      "light": 631,
      "Ġfeelings": 632,
      "rem": 633,
      "Ġfo": 634,
      "uring": 635,
      "Ġus": 636,
      "Ġcomm": 637,
      "uct": 638,
      "Ġvery": 639,
      "Ġmust": 640,
      "Ġmurd": 641,
      "Ġpl": 642,
      "Ġev": 643,
      "leas": 644,
      "rib": 645,
      "eed": 646,
      "eav": 647,
      "Ġkind": 648,
      "overed": 649,
      "Ġpass": 650,
      "Ġconf": 651,
      "Ġdesp": 652,
      "ĠThis": 653,
      "ach": 654,
      "hen": 655,
      "iness": 656,
      "Ġmade": 657,
      "Ġposs": 658,
      "Ġhand": 659,
      "ĠShe": 660,
      "air": 661,
      "hap": 662,
      "ived": 663,
      "Ġhum": 664,
      "own": 665,
      "ĠYou": 666,
      "pl": 667,
      "ink": 668,
      "Ġpleas": 669,
      "Ġnear": 670,
      "Ġdear": 671,
      "Ġalso": 672,
      "Ġcreature": 673,
      "erm": 674,
      "Ġem": 675,
      "Ġgu": 676,
      "eared": 677,
      "Ġmany": 678,
      "Ġnever": 679,
      "Ġpassed": 680,
      "fort": 681,
      "Ġsur": 682,
      "Ġcr": 683,
      "Ġtoo": 684,
      "Ġthr": 685,
      "owed": 686,
      "irit": 687,
      "Ġstill": 688,
      "ressed": 689,
      "ty": 690,
      "ors": 691,
      "ans": 692,
      "Ġlook": 693,
      "ceived": 694,
      "Ġspirit": 695,
      "Ġcontin": 696,
      "ave": 697,
      "ĠJ": 698,
      "Ġac": 699,
      "Ġsame": 700,
      "Ġsens": 701,
      "Ġhas": 702,
      "ains": 703,
      "lie": 704,
      "Ġsoon": 705,
      "Ġhuman": 706,
      "ord": 707,
      "Ġinf": 708,
      "Ġfear": 709,
      "Ġsun": 710,
      "Ġexc": 711,
      "ours": 712,
      "land": 713,
      "ĠWh": 714,
      "Ġchild": 715,
      "Ġmiserable": 716,
      "Ġreflect": 717,
      "aut": 718,
      "ull": 719,
      "Ġwo": 720,
      "Ġche": 721,
      "Ġlet": 722,
      "Ġheard": 723,
      "Ġfew": 724,
      "up": 725,
      "ured": 726,
      "Ġwret": 727,
      "arm": 728,
      "Ġext": 729,
      "ĠWe": 730,
      "Ġfriends": 731,
      "Ġbecame": 732,
      "ared": 733,
      "ten": 734,
      "uch": 735,
      "Ġmount": 736,
      "omet": 737,
      "ude": 738,
      "ĠCl": 739,
      "Ġlike": 740,
      "enev": 741,
      "Ġcountry": 742,
      "Ġplace": 743,
      "ometimes": 744,
      "av": 745,
      "Ġwat": 746,
      "Ġpow": 747,
      "Ġwhile": 748,
      "Ġvis": 749,
      "Ġappear": 750,
      "ause": 751,
      "erval": 752,
      "ĠClerval": 753,
      "Ġmom": 754,
      "ently": 755,
      "ittle": 756,
      "Ġcontinu": 757,
      "âĦ": 758,
      "ĠIn": 759,
      "ition": 760,
      "Ġbeaut": 761,
      "Ġunt": 762,
      "Ġappeared": 763,
      "ĠĠĠĠ": 764,
      "âĦ¢": 765,
      "ac": 766,
      "eli": 767,
      "ip": 768,
      "ren": 769,
      "Ġhorr": 770,
      "Ġlight": 771,
      "vers": 772,
      "Ġendeav": 773,
      "ible": 774,
      "per": 775,
      "Ġout": 776,
      "Ġsm": 777,
      "ised": 778,
      "Ġdet": 779,
      "Ġlittle": 780,
      "roy": 781,
      "Ġsupp": 782,
      "iff": 783,
      "ustine": 784,
      "Ġdestroy": 785,
      "Ġold": 786,
      "ried": 787,
      "Ġvo": 788,
      "Ġwords": 789,
      "Ġabout": 790,
      "Ġmisery": 791,
      "Ġindeed": 792,
      "Ġpursu": 793,
      "Ġpossess": 794,
      "Ġwind": 795,
      "Ġsou": 796,
      "itted": 797,
      "though": 798,
      "Ġaway": 799,
      "ĠJustine": 800,
      "not": 801,
      "Ġoften": 802,
      "Ġbeg": 803,
      "veral": 804,
      "Ġuntil": 805,
      "ale": 806,
      "hing": 807,
      "ked": 808,
      "ense": 809,
      "Ġtor": 810,
      "Ġinter": 811,
      "Ġbelie": 812,
      "Ġarri": 813,
      "Ġjoy": 814,
      "Ġdays": 815,
      "Ġhope": 816,
      "Ġcottage": 817,
      "fortun": 818,
      "ged": 819,
      "old": 820,
      "sp": 821,
      "ĠR": 822,
      "read": 823,
      "Ġmo": 824,
      "ĠIf": 825,
      "ceed": 826,
      "ected": 827,
      "Ġseem": 828,
      "Ġmann": 829,
      "Ġwhose": 830,
      "Ġamong": 831,
      "Ġcannot": 832,
      "Ġnature": 833,
      "Ġdespair": 834,
      "elix": 835,
      "lf": 836,
      "Ġsat": 837,
      "Ġhard": 838,
      "Ġduring": 839,
      "Ġdiff": 840,
      "Ġinn": 841,
      "right": 842,
      "Ġalthough": 843,
      "ĠWhen": 844,
      "Ġcompan": 845,
      "Ġhappiness": 846,
      "Ġcour": 847,
      "Ġthus": 848,
      "Ġreg": 849,
      "Ġworld": 850,
      "ĠĠĠ": 851,
      "Ġnew": 852,
      "ĠChap": 853,
      "Ġcounten": 854,
      "Ġaffection": 855,
      "Ġmonth": 856,
      "ĠChapter": 857,
      "app": 858,
      "lic": 859,
      "most": 860,
      "Ġmen": 861,
      "Ġfl": 862,
      "Ġfam": 863,
      "Ġdelight": 864,
      "Ġsub": 865,
      "Ġimag": 866,
      "ledge": 867,
      "oc": 868,
      "Ġcop": 869,
      "Ġprom": 870,
      "Ġgl": 871,
      "Ġgent": 872,
      "Ġwell": 873,
      "ult": 874,
      "Ġresol": 875,
      "Ġpresent": 876,
      "Ġoccup": 877,
      "Ġfollow": 878,
      "Ġthrough": 879,
      "Ġvoice": 880,
      "Ġturn": 881,
      "Ġsy": 882,
      "ouse": 883,
      "Ġdark": 884,
      "Ġdec": 885,
      "Ġdeep": 886,
      "Ġalone": 887,
      "ĠFelix": 888,
      "aken": 889,
      "Ġcond": 890,
      "Ġhappy": 891,
      "Ġdisco": 892,
      "Ġhorror": 893,
      "ces": 894,
      "ond": 895,
      "oke": 896,
      "Ġut": 897,
      "Ġmuch": 898,
      "itude": 899,
      "ase": 900,
      "Ġnor": 901,
      "Ġlab": 902,
      "cept": 903,
      "Ġyears": 904,
      "Ġanother": 905,
      "Ġsec": 906,
      "Ġseveral": 907,
      "Ġscene": 908,
      "Ġwonder": 909,
      "Ġpower": 910,
      "den": 911,
      "ĠU": 912,
      "Ġid": 913,
      "Ġice": 914,
      "Ġcre": 915,
      "Ġpea": 916,
      "ster": 917,
      "Ġdeg": 918,
      "Ġconc": 919,
      "ney": 920,
      "ew": 921,
      "ving": 922,
      "Ġwr": 923,
      "Ġbest": 924,
      "Ġcur": 925,
      "Ġcall": 926,
      "Ġcame": 927,
      "Ġrel": 928,
      "ĠAs": 929,
      "Ġjour": 930,
      "Ġconsid": 931,
      "Ġdepart": 932,
      "ribut": 933,
      "aven": 934,
      "ever": 935,
      "ned": 936,
      "Ġtw": 937,
      "int": 938,
      "Ġmor": 939,
      "Ġop": 940,
      "Ġsin": 941,
      "Ġsound": 942,
      "Ġstud": 943,
      "Ġexist": 944,
      "Ġobs": 945,
      "Ġworks": 946,
      "Ġpleasure": 947,
      "Ġletter": 948,
      "Ġmoment": 949,
      "The": 950,
      "igh": 951,
      "ruct": 952,
      "uish": 953,
      "Ġact": 954,
      "ener": 955,
      "Ġph": 956,
      "Ġyoung": 957,
      "ety": 958,
      "Ġdev": 959,
      "Ġass": 960,
      "lied": 961,
      "ĠAr": 962,
      "anger": 963,
      "Ġsoul": 964,
      "joy": 965,
      "Ġill": 966,
      "hes": 967,
      "ates": 968,
      "Ġfar": 969,
      "Ġhouse": 970,
      "Ġread": 971,
      "ention": 972,
      "Ġalmost": 973,
      "Ġappro": 974,
      "Ġremem": 975,
      "Ġadd": 976,
      "Ġhands": 977,
      "Ġcountenance": 978,
      "Ġmonths": 979,
      "Ġpeace": 980,
      "form": 981,
      "pr": 982,
      "Ġ_": 983,
      "ination": 984,
      "Ġmake": 985,
      "Ġbound": 986,
      "itter": 987,
      "Ġle": 988,
      "Ġgo": 989,
      "Ġstre": 990,
      "Ġentered": 991,
      "Ġthoughts": 992,
      "Ġpoor": 993,
      "Ġearth": 994,
      "Ġfiend": 995,
      "Ġsym": 996,
      "Ġjourney": 997,
      "ace": 998,
      "ec": 999,
      "sion": 1000,
      "ĠV": 1001,
      "Ġwood": 1002,
      "Ġsometimes": 1003,
      "Ġcal": 1004,
      "Ġdown": 1005,
      "Ġbet": 1006,
      "Ġwithout": 1007,
      "laim": 1008,
      "Ġhimself": 1009,
      "Ġchar": 1010,
      "Ġtherefore": 1011,
      "orrow": 1012,
      "Ġwretched": 1013,
      "Ġmountains": 1014,
      "Ġpossessed": 1015,
      "Ġinnoc": 1016,
      "Ġmorning": 1017,
      "iz": 1018,
      "ling": 1019,
      "med": 1020,
      "path": 1021,
      "Ġsle": 1022,
      "oud": 1023,
      "ony": 1024,
      "Ġcause": 1025,
      "ays": 1026,
      "illed": 1027,
      "Ġenjoy": 1028,
      "Ġunderst": 1029,
      "Ġtook": 1030,
      "Ġacqu": 1031,
      "eneva": 1032,
      "Ġseemed": 1033,
      "Ġgentle": 1034,
      "Ġsince": 1035,
      "af": 1036,
      "aw": 1037,
      "ks": 1038,
      "ves": 1039,
      "Ġswe": 1040,
      "oured": 1041,
      "ason": 1042,
      "Ġlef": 1043,
      "ici": 1044,
      "Ġheaven": 1045,
      "Ġwithin": 1046,
      "ainted": 1047,
      "ĠAnd": 1048,
      "ants": 1049,
      "Ġenter": 1050,
      "aking": 1051,
      "erest": 1052,
      "Ġstrange": 1053,
      "ances": 1054,
      "Ġleft": 1055,
      "du": 1056,
      "ug": 1057,
      "oub": 1058,
      "Ġbitter": 1059,
      "Ġfree": 1060,
      "Ġhours": 1061,
      "ont": 1062,
      "Ġcare": 1063,
      "Ġoff": 1064,
      "ither": 1065,
      "Ġlist": 1066,
      "Ġstate": 1067,
      "Ġvar": 1068,
      "ĠThey": 1069,
      "Ġaround": 1070,
      "Ġjust": 1071,
      "cience": 1072,
      "Ġremain": 1073,
      "Ġquick": 1074,
      "ĠYet": 1075,
      "Ġadv": 1076,
      "Ġdiscovered": 1077,
      "Ġcopy": 1078,
      "Ġsympath": 1079,
      "ached": 1080,
      "ib": 1081,
      "Ġter": 1082,
      "Ġtaken": 1083,
      "Ġwal": 1084,
      "Ġmother": 1085,
      "Ġsil": 1086,
      "Ġcome": 1087,
      "Ġlive": 1088,
      "Ġgri": 1089,
      "Ġgood": 1090,
      "ided": 1091,
      "Ġfellow": 1092,
      "iful": 1093,
      "ĠAg": 1094,
      "Ġalread": 1095,
      "ĠHis": 1096,
      "Ġmisfortun": 1097,
      "ĠEng": 1098,
      "Ġard": 1099,
      "ĠFr": 1100,
      "ĠGeneva": 1101,
      "Ġexpress": 1102,
      "Ġobject": 1103,
      "aught": 1104,
      "Ġbecome": 1105,
      "Ġknowledge": 1106,
      "Ġprot": 1107,
      "Ġcontinued": 1108,
      "Ġidea": 1109,
      "Ġtwo": 1110,
      "Ġalready": 1111,
      "act": 1112,
      "dden": 1113,
      "eas": 1114,
      "Ġterm": 1115,
      "Ġtale": 1116,
      "Ġair": 1117,
      "rees": 1118,
      "eri": 1119,
      "ister": 1120,
      "Ġlea": 1121,
      "Ġlast": 1122,
      "Ġelect": 1123,
      "Ġgave": 1124,
      "ures": 1125,
      "Ġsea": 1126,
      "Ġwhole": 1127,
      "ung": 1128,
      "Ġremained": 1129,
      "ments": 1130,
      "angu": 1131,
      "Ġknew": 1132,
      "Ġroom": 1133,
      "ertain": 1134,
      "Ġdream": 1135,
      "Ġsensations": 1136,
      "ĠWhat": 1137,
      "Ġbelieve": 1138,
      "ail": 1139,
      "ack": 1140,
      "hor": 1141,
      "ps": 1142,
      "xed": 1143,
      "Ġ(": 1144,
      "Ġtrem": 1145,
      "held": 1146,
      "Ġsn": 1147,
      "Ġfull": 1148,
      "Ġinh": 1149,
      "ars": 1150,
      "Ġlear": 1151,
      "Ġlost": 1152,
      "Ġland": 1153,
      "Ġlaw": 1154,
      "icul": 1155,
      "Ġbeheld": 1156,
      "ural": 1157,
      "irl": 1158,
      "Ġang": 1159,
      "Ġsudden": 1160,
      "ousand": 1161,
      "Ġcold": 1162,
      "erer": 1163,
      "loom": 1164,
      "Ġreturned": 1165,
      "Ġspirits": 1166,
      "Ġmanner": 1167,
      "Ġfamily": 1168,
      "Ġresolved": 1169,
      "Ġconsider": 1170,
      "Ġexistence": 1171,
      "Ġelectr": 1172,
      "?âĢĿ": 1173,
      "mon": 1174,
      "osed": 1175,
      "sw": 1176,
      "son": 1177,
      "unt": 1178,
      "Ġopp": 1179,
      "erved": 1180,
      "Ġbod": 1181,
      "Ġfind": 1182,
      "Ġdire": 1183,
      "Ġtown": 1184,
      "Ġthink": 1185,
      "Ġthousand": 1186,
      "Ġlay": 1187,
      "Ġrequ": 1188,
      "Ġhere": 1189,
      "ros": 1190,
      "Ġnothing": 1191,
      "Ġanim": 1192,
      "ĠSt": 1193,
      "ĠHow": 1194,
      "Ġchange": 1195,
      "Ġenem": 1196,
      "Ġbrother": 1197,
      "Ġhowever": 1198,
      "Ġmonster": 1199,
      "Ġsuffer": 1200,
      "Ġloved": 1201,
      "Ġnearly": 1202,
      "Ġappearance": 1203,
      "Ġcompanion": 1204,
      "ein": 1205,
      "ell": 1206,
      "tered": 1207,
      "ual": 1208,
      "Ġwarm": 1209,
      "Ġmod": 1210,
      "Ġsw": 1211,
      "Ġsight": 1212,
      "Ġbo": 1213,
      "enst": 1214,
      "onic": 1215,
      "its": 1216,
      "Ġlangu": 1217,
      "Ġeff": 1218,
      "omp": 1219,
      "Ġbeh": 1220,
      "let": 1221,
      "irc": 1222,
      "Ġfort": 1223,
      "Ġdead": 1224,
      "Ġsol": 1225,
      "Ġprof": 1226,
      "Ġprov": 1227,
      "Ġproceed": 1228,
      "Ġperson": 1229,
      "arent": 1230,
      "Ġcoll": 1231,
      "ictor": 1232,
      "Ġcottag": 1233,
      "Ġinstant": 1234,
      "ankenst": 1235,
      "Ġlooked": 1236,
      "Ġarrived": 1237,
      "Ġgrief": 1238,
      "Ġinhab": 1239,
      "Ġelectronic": 1240,
      "Ġdirect": 1241,
      "ankenstein": 1242,
      "cess": 1243,
      "crib": 1244,
      "get": 1245,
      "lan": 1246,
      "lud": 1247,
      "vour": 1248,
      "Ġtears": 1249,
      "Ġscience": 1250,
      "ating": 1251,
      "oun": 1252,
      "Ġfr": 1253,
      "Ġcap": 1254,
      "Ġcirc": 1255,
      "itation": 1256,
      "Ġeach": 1257,
      "Ġgirl": 1258,
      "ides": 1259,
      "Ġansw": 1260,
      "ably": 1261,
      "ĠAl": 1262,
      "Ġyourself": 1263,
      "Ġdesire": 1264,
      "cip": 1265,
      "Ġplaced": 1266,
      "Ġnative": 1267,
      "Ġbrought": 1268,
      "Ġreco": 1269,
      "Ġdread": 1270,
      "Ġendeavoured": 1271,
      "Ġdeterm": 1272,
      "Ġbegan": 1273,
      "ĠVictor": 1274,
      "ĠFrankenstein": 1275,
      "Ġterms": 1276,
      "gth": 1277,
      "ian": 1278,
      "rate": 1279,
      "Ġwand": 1280,
      "Ġmin": 1281,
      "Ġmar": 1282,
      "Ġmag": 1283,
      "Ġmine": 1284,
      "Ġset": 1285,
      "Ġsorrow": 1286,
      "erning": 1287,
      "Ġbene": 1288,
      "ength": 1289,
      "Ġfat": 1290,
      "Ġlength": 1291,
      "ical": 1292,
      "ceive": 1293,
      "Ġonce": 1294,
      "irt": 1295,
      "alth": 1296,
      "Ġforth": 1297,
      "Ġsum": 1298,
      "Ġeng": 1299,
      "Ġfeeling": 1300,
      "Ġadm": 1301,
      "ract": 1302,
      "Ġfavour": 1303,
      "Ġgreatest": 1304,
      "Ġrefu": 1305,
      "Ġreplied": 1306,
      "Ġground": 1307,
      "Ġseek": 1308,
      "Ġmurderer": 1309,
      "Ġkindness": 1310,
      "Ġguil": 1311,
      "Ġbeauty": 1312,
      "Ġbeautiful": 1313,
      "Ġhardly": 1314,
      "Ġdiscover": 1315,
      "Ġsleep": 1316,
      "Ġsweet": 1317,
      "!âĢĿ": 1318,
      "iol": 1319,
      "val": 1320,
      "Ġir": 1321,
      "Ġwom": 1322,
      "Ġwish": 1323,
      "enry": 1324,
      "Ġfood": 1325,
      "Ġhast": 1326,
      "Ġpain": 1327,
      "Ġpath": 1328,
      "Ġlake": 1329,
      "cend": 1330,
      "Ġmeans": 1331,
      "idence": 1332,
      "rif": 1333,
      "Ġstep": 1334,
      "ility": 1335,
      "ĠAt": 1336,
      "Ġrather": 1337,
      "Ġunc": 1338,
      "Ġunh": 1339,
      "ousin": 1340,
      "ended": 1341,
      "ĠHenry": 1342,
      "Ġprop": 1343,
      "umst": 1344,
      "Ġperceived": 1345,
      "Ġinterest": 1346,
      "Ġagony": 1347,
      "aged": 1348,
      "Ġexpressed": 1349,
      "iew": 1350,
      "Ġothers": 1351,
      "Ġlovely": 1352,
      "Ġevil": 1353,
      "Ġextrem": 1354,
      "Ġutter": 1355,
      "Ġcalled": 1356,
      "Ġcalm": 1357,
      "Ġvarious": 1358,
      "Ġquickly": 1359,
      ".âĢĻ": 1360,
      "iam": 1361,
      "les": 1362,
      "nest": 1363,
      "the": 1364,
      "ways": 1365,
      "ĠK": 1366,
      "Ġsay": 1367,
      "Ġsister": 1368,
      "Ġfire": 1369,
      "Ġhour": 1370,
      "Ġhome": 1371,
      "Ġhigh": 1372,
      "Ġcousin": 1373,
      "Ġdied": 1374,
      "Ġdoub": 1375,
      "anqu": 1376,
      "Ġhead": 1377,
      "rible": 1378,
      "tern": 1379,
      "illiam": 1380,
      "iled": 1381,
      "Ġrage": 1382,
      "Ġspent": 1383,
      "Ġspoke": 1384,
      "Ġpersu": 1385,
      "Ġdesired": 1386,
      "venge": 1387,
      "Ġnecess": 1388,
      "ield": 1389,
      "Ġaccount": 1390,
      "Ġgreater": 1391,
      "Ġdistribut": 1392,
      "loved": 1393,
      "well": 1394,
      "Ġpurp": 1395,
      "Ġmurder": 1396,
      "ploy": 1397,
      "Ġdiffere": 1398,
      "Ġconcerning": 1399,
      "ruction": 1400,
      "afie": 1401,
      "Ġsnow": 1402,
      "Ġcircumst": 1403,
      "man": 1404,
      "round": 1405,
      "rely": 1406,
      "Ġsk": 1407,
      "Ġfut": 1408,
      "isf": 1409,
      "iter": 1410,
      "Ġdie": 1411,
      "Ġins": 1412,
      "ingly": 1413,
      "Ġless": 1414,
      "ices": 1415,
      "Ġbeloved": 1416,
      "Ġyouth": 1417,
      "Ġgener": 1418,
      "Ġuse": 1419,
      "Ġvirt": 1420,
      "Ġviol": 1421,
      "Ġview": 1422,
      "ific": 1423,
      "ilos": 1424,
      "Ġself": 1425,
      "oundation": 1426,
      "Ġalways": 1427,
      "Ġrap": 1428,
      "ement": 1429,
      "empt": 1430,
      "olation": 1431,
      "Ġtranqu": 1432,
      "ĠFor": 1433,
      "ĠFoundation": 1434,
      "Ġdoor": 1435,
      "aused": 1436,
      "Ġoverc": 1437,
      "raw": 1438,
      "Ġsuffici": 1439,
      "Ġfixed": 1440,
      "Ġplay": 1441,
      "Ġcreatures": 1442,
      "Ġemploy": 1443,
      "Ġsurround": 1444,
      "Ġwretch": 1445,
      "Ġwatch": 1446,
      "Ġoccupied": 1447,
      "Ġturned": 1448,
      "Ġdegree": 1449,
      "Ġphilos": 1450,
      "Ġrememb": 1451,
      "ross": 1452,
      "Ġphilosop": 1453,
      "bed": 1454,
      "hy": 1455,
      "xt": 1456,
      "Ġes": 1457,
      "reas": 1458,
      "Ġmot": 1459,
      "Ġbro": 1460,
      "Ġfilled": 1461,
      "Ġhor": 1462,
      "ons": 1463,
      "Ġcle": 1464,
      "Ġcertain": 1465,
      "Ġpar": 1466,
      "ass": 1467,
      "arr": 1468,
      "Ġeas": 1469,
      "Ġreason": 1470,
      "Ġrevenge": 1471,
      "Ġhear": 1472,
      "Ġgive": 1473,
      "ĠâĢĺ": 1474,
      "Ġseiz": 1475,
      "ĠSometimes": 1476,
      "ĠSafie": 1477,
      "ĠWilliam": 1478,
      "Ġprog": 1479,
      "Ġperm": 1480,
      "Ġagre": 1481,
      "Ġentire": 1482,
      "Ġabhor": 1483,
      "Ġendured": 1484,
      "Ġlived": 1485,
      "ĠOn": 1486,
      "Ġprep": 1487,
      "Ġnatural": 1488,
      "Ġhopes": 1489,
      "Ġlonger": 1490,
      "Ġsurpr": 1491,
      "ĠĠĠĠĠĠĠ": 1492,
      "Ġdestroyed": 1493,
      "Ġtort": 1494,
      "Ġsubject": 1495,
      "Ġimagination": 1496,
      "Ġanguish": 1497,
      "Ġsuddenly": 1498,
      "Ġbody": 1499,
      "Ġenemy": 1500,
      "Ġcottagers": 1501,
      "az": 1502,
      "bs": 1503,
      "iven": 1504,
      "tain": 1505,
      "Ġ2": 1506,
      "rew": 1507,
      "Ġmad": 1508,
      "Ġserv": 1509,
      "Ġbenev": 1510,
      "ities": 1511,
      "Ġdut": 1512,
      "ask": 1513,
      "arly": 1514,
      "Ġlim": 1515,
      "omed": 1516,
      "Ġhalf": 1517,
      "Ġbeings": 1518,
      "ution": 1519,
      "ury": 1520,
      "Ġgloom": 1521,
      "Ġitself": 1522,
      "Ġconvers": 1523,
      "Ġhist": 1524,
      "Ġexh": 1525,
      "Ġven": 1526,
      "iles": 1527,
      "ately": 1528,
      "Ġspe": 1529,
      "Ġdescrib": 1530,
      "atha": 1531,
      "Ġtrave": 1532,
      "Ġjud": 1533,
      "Ġquitted": 1534,
      "Ġattention": 1535,
      "Ġstranger": 1536,
      "Ġprev": 1537,
      "Ġblood": 1538,
      "Ġpassion": 1539,
      "Ġvisit": 1540,
      "Ġmoon": 1541,
      "Ġpromise": 1542,
      "Ġfollowed": 1543,
      "ĠUn": 1544,
      "Ġunderstand": 1545,
      "Ġwoman": 1546,
      "Ġunhapp": 1547,
      "Ġbenevol": 1548,
      "My": 1549,
      "fect": 1550,
      "full": 1551,
      "ored": 1552,
      "Ã¦": 1553,
      "Ġri": 1554,
      "Ġign": 1555,
      "Ġtri": 1556,
      "inct": 1557,
      "Ġwild": 1558,
      "Ġsent": 1559,
      "enced": 1560,
      "Ġfall": 1561,
      "Ġcar": 1562,
      "orn": 1563,
      "arch": 1564,
      "Ġele": 1565,
      "Ġhaving": 1566,
      "Ġreal": 1567,
      "Ġreceived": 1568,
      "âĢĺ": 1569,
      "Ġdel": 1570,
      "Ġdeare": 1571,
      "Ġconv": 1572,
      "ĠâĢľâĢĺ": 1573,
      "geance": 1574,
      "Ġvict": 1575,
      "Ġshore": 1576,
      "cho": 1577,
      "Ġdisp": 1578,
      "lack": 1579,
      "Ġunable": 1580,
      "Ġspot": 1581,
      "Ġproc": 1582,
      "ccess": 1583,
      "Ġperform": 1584,
      "Ġtrue": 1585,
      "ĠGod": 1586,
      "Ġagainst": 1587,
      "Ġdestruction": 1588,
      "Ġformed": 1589,
      "Ġsuffered": 1590,
      "haps": 1591,
      "Ġcheer": 1592,
      "Ġmountain": 1593,
      "Ġendeavour": 1594,
      "Ġobserved": 1595,
      "Ġdevot": 1596,
      "ĠAgatha": 1597,
      "ĠEngland": 1598,
      "Ġprotect": 1599,
      "Ġleave": 1600,
      "Ġsumm": 1601,
      "Ġdoubt": 1602,
      "Ġfuture": 1603,
      "Ġvengeance": 1604,
      "fully": 1605,
      "cap": 1606,
      "mn": 1607,
      "ting": 1608,
      "Ġtem": 1609,
      "Ġtake": 1610,
      "Ġtrees": 1611,
      "iny": 1612,
      "Ġwent": 1613,
      "Ġway": 1614,
      "Ġwished": 1615,
      "Ġmark": 1616,
      "Ġsit": 1617,
      "Ġbed": 1618,
      "Ġbar": 1619,
      "Ġhide": 1620,
      "Ġhung": 1621,
      "ison": 1622,
      "essel": 1623,
      "Ġeag": 1624,
      "Ġrend": 1625,
      "ute": 1626,
      "Ġvessel": 1627,
      "Ġseen": 1628,
      "Ġsole": 1629,
      "Ġdisapp": 1630,
      "eak": 1631,
      "Ġru": 1632,
      "Ġallowed": 1633,
      "Ġprodu": 1634,
      "Ġperhaps": 1635,
      "Ġimm": 1636,
      "anged": 1637,
      "Ġabs": 1638,
      "ĠOh": 1639,
      "ooks": 1640,
      "Ġface": 1641,
      "ween": 1642,
      "Ġdrew": 1643,
      "ĠNo": 1644,
      "Ġmurdered": 1645,
      "Ġexclaim": 1646,
      "Ġwater": 1647,
      "Ġsatisf": 1648,
      "Ġdeeply": 1649,
      "Ġcreation": 1650,
      "Ġstudy": 1651,
      "Ġacquainted": 1652,
      "Ġinhabit": 1653,
      "Ġanswer": 1654,
      "Ġextreme": 1655,
      "Ġdifferent": 1656,
      "Ġsufficient": 1657,
      "Ġprogress": 1658,
      "Ġentirely": 1659,
      "Ã¦mon": 1660,
      "Ġvictim": 1661,
      "You": 1662,
      "ey": 1663,
      "hip": 1664,
      "iable": 1665,
      "iod": 1666,
      "to": 1667,
      "used": 1668,
      "Ġed": 1669,
      "Ġtask": 1670,
      "Ġav": 1671,
      "Ġast": 1672,
      "Ġmat": 1673,
      "Ġsick": 1674,
      "Ġsank": 1675,
      "erly": 1676,
      "ature": 1677,
      "Ġblack": 1678,
      "Ġhid": 1679,
      "Ġcast": 1680,
      "Ġdared": 1681,
      "ĠdÃ¦mon": 1682,
      "Ġput": 1683,
      "Ġthy": 1684,
      "Ġthir": 1685,
      "anced": 1686,
      "asp": 1687,
      "Ġrev": 1688,
      "uth": 1689,
      "Ġhealth": 1690,
      "Ġmem": 1691,
      "als": 1692,
      "Ġdem": 1693,
      "ames": 1694,
      "Ġvoy": 1695,
      "Ġshort": 1696,
      "Ġunf": 1697,
      "Ġspr": 1698,
      "Ġperiod": 1699,
      "ages": 1700,
      "Ġtrans": 1701,
      "Ġeye": 1702,
      "Ġcloud": 1703,
      "Ġoccur": 1704,
      "Ġchildren": 1705,
      "aves": 1706,
      "spect": 1707,
      "Ġmanners": 1708,
      "Ġcourage": 1709,
      "Ġsecret": 1710,
      "Ġapproached": 1711,
      "Ġbetween": 1712,
      "Ġinnocent": 1713,
      "Ġsympathy": 1714,
      "aughter": 1715,
      "Ġlearned": 1716,
      "Ġlaws": 1717,
      "Ġlanguage": 1718,
      "Ġrecoll": 1719,
      "Ġsteps": 1720,
      "Ġpurpose": 1721,
      "Ġrapid": 1722,
      "Ġeasily": 1723,
      "Ġhistory": 1724,
      "choly": 1725,
      "Ġexclaimed": 1726,
      "der": 1727,
      "hat": 1728,
      "ial": 1729,
      "pe": 1730,
      "ught": 1731,
      "Ġtal": 1732,
      "Ġson": 1733,
      "Ġsought": 1734,
      "ern": 1735,
      "Ġbless": 1736,
      "Ġful": 1737,
      "Ġfate": 1738,
      "Ġcovered": 1739,
      "ising": 1740,
      "Ġdanger": 1741,
      "Ġpe": 1742,
      "Ġthreat": 1743,
      "Ġinqu": 1744,
      "ash": 1745,
      "aster": 1746,
      "Ġmean": 1747,
      "Ġmeet": 1748,
      "Ġmelan": 1749,
      "Ġgiven": 1750,
      "riage": 1751,
      "Ġfell": 1752,
      "Ġsuper": 1753,
      "Ġexec": 1754,
      "Ġvill": 1755,
      "live": 1756,
      "like": 1757,
      "ĠThere": 1758,
      "ĠThese": 1759,
      "Ġunfortun": 1760,
      "Ġspeak": 1761,
      "Ġsail": 1762,
      "ĠBe": 1763,
      "Ġmist": 1764,
      "Ġenc": 1765,
      "Ġexperi": 1766,
      "Ġendure": 1767,
      "Ġlips": 1768,
      "Ġconsolation": 1769,
      "Ġcreator": 1770,
      "Ġafford": 1771,
      "ancy": 1772,
      "ives": 1773,
      "iving": 1774,
      "Ġcommence": 1775,
      "Ġevents": 1776,
      "Ġconfess": 1777,
      "Ġinform": 1778,
      "Ġcontinually": 1779,
      "Ġsmall": 1780,
      "Ġcourse": 1781,
      "Ġregard": 1782,
      "Ġconduct": 1783,
      "Ġdiscovery": 1784,
      "Ġdeparture": 1785,
      "Ġopened": 1786,
      "Ġinnocence": 1787,
      "Ġcopyright": 1788,
      "Ġboat": 1789,
      "Ġproceeded": 1790,
      "Ġdetermined": 1791,
      "Ġengaged": 1792,
      "Ġnecessary": 1793,
      "Ġsurrounded": 1794,
      "Ġconversation": 1795,
      "Ġunhappy": 1796,
      "Ġsitu": 1797,
      "Ġrendered": 1798,
      "Ġfulf": 1799,
      "Ġmelancholy": 1800,
      "gr": 1801,
      "ier": 1802,
      "ili": 1803,
      "ken": 1804,
      "low": 1805,
      "ued": 1806,
      "uished": 1807,
      "ys": 1808,
      "ze": 1809,
      "Ġke": 1810,
      "Ġwa": 1811,
      "Ġmal": 1812,
      "Ġsom": 1813,
      "erve": 1814,
      "Ġbre": 1815,
      "Ġbes": 1816,
      "eness": 1817,
      "Ġfin": 1818,
      "itz": 1819,
      "Ġdon": 1820,
      "Ġine": 1821,
      "Ġinj": 1822,
      "Ġinv": 1823,
      "inguished": 1824,
      "Ġnone": 1825,
      "Ġled": 1826,
      "Ġequ": 1827,
      "Ġhell": 1828,
      "cell": 1829,
      "Ġgaz": 1830,
      "ets": 1831,
      "ayed": 1832,
      "Ġexam": 1833,
      "Ġexert": 1834,
      "aded": 1835,
      "ills": 1836,
      "Ġvain": 1837,
      "selves": 1838,
      "Ġsaf": 1839,
      "ĠMr": 1840,
      "ushed": 1841,
      "Ġjo": 1842,
      "Ġcomply": 1843,
      "anging": 1844,
      "Ġentreat": 1845,
      "Ġretired": 1846,
      "Ġquit": 1847,
      "Ġconsent": 1848,
      "Ġconsum": 1849,
      "ething": 1850,
      "Ġattend": 1851,
      "Ġresp": 1852,
      "Ġimpro": 1853,
      "Ġpoint": 1854,
      "Ġclose": 1855,
      "ĠDuring": 1856,
      "Ġundert": 1857,
      "Ġafterwards": 1858,
      "Ġacross": 1859,
      "Ġvisited": 1860,
      "Ġmoments": 1861,
      "Ġsupport": 1862,
      "Ġpursue": 1863,
      "Ġlabours": 1864,
      "Ġwonderful": 1865,
      "Ġbestow": 1866,
      "Ġopen": 1867,
      "Ġletters": 1868,
      "ĠArch": 1869,
      "Ġmisfortunes": 1870,
      "Ġtremb": 1871,
      "Ġeffect": 1872,
      "lete": 1873,
      "Ġfortun": 1874,
      "luded": 1875,
      "Ġadmir": 1876,
      "Ġtranquill": 1877,
      "Ġescap": 1878,
      "Ġagreement": 1879,
      "Ġaston": 1880,
      "Ġthirst": 1881,
      "Ġmemory": 1882,
      "EN": 1883,
      "hus": 1884,
      "hood": 1885,
      "long": 1886,
      "mb": 1887,
      "ple": 1888,
      "pted": 1889,
      "rum": 1890,
      "ub": 1891,
      "use": 1892,
      "ines": 1893,
      "rer": 1894,
      "Ġmer": 1895,
      "Ġbus": 1896,
      "Ġback": 1897,
      "enc": 1898,
      "enes": 1899,
      "Ġfre": 1900,
      "ĠIng": 1901,
      "Ġda": 1902,
      "Ġdiv": 1903,
      "Ġtoil": 1904,
      "Ġpict": 1905,
      "orted": 1906,
      "Ġname": 1907,
      "Ġnarr": 1908,
      "Ġnames": 1909,
      "Ġlat": 1910,
      "stad": 1911,
      "Ġassu": 1912,
      "Ġasked": 1913,
      "Ġweep": 1914,
      "Ġwept": 1915,
      "Ġconce": 1916,
      "Ġsuccess": 1917,
      "Ġsoci": 1918,
      "Ġra": 1919,
      "Ġrain": 1920,
      "Ġunion": 1921,
      "eless": 1922,
      "olstad": 1923,
      "Ġdesert": 1924,
      "Ġdescend": 1925,
      "ople": 1926,
      "osity": 1927,
      "Ġarr": 1928,
      "ortion": 1929,
      "ishing": 1930,
      "ĠPar": 1931,
      "Ġfright": 1932,
      "ief": 1933,
      "Ġaccord": 1934,
      "ĠOne": 1935,
      "Ġbecause": 1936,
      "Ġscar": 1937,
      "Ġscenes": 1938,
      "Ġstrong": 1939,
      "Ġrose": 1940,
      "ĠDo": 1941,
      "Ġrestored": 1942,
      "Ġinstrum": 1943,
      "Ġcommun": 1944,
      "Ġcrime": 1945,
      "Ġreflections": 1946,
      "Ġpursuit": 1947,
      "Ġbegin": 1948,
      "Ġsounds": 1949,
      "ĠArab": 1950,
      "Ġstreng": 1951,
      "medi": 1952,
      "Ġheavens": 1953,
      "Ġwalked": 1954,
      "Ġmisfortune": 1955,
      "ompan": 1956,
      "Ġprofess": 1957,
      "Ġinstantly": 1958,
      "Ġbenef": 1959,
      "Ġfatig": 1960,
      "Ġguilt": 1961,
      "Ġovercome": 1962,
      "Ġseized": 1963,
      "Ġdearest": 1964,
      "Ġcheerful": 1965,
      "Ġdemand": 1966,
      "Ġsomething": 1967,
      "ĠIngolstad": 1968,
      "ĠIngolstadt": 1969,
      "aid": 1970,
      "ek": 1971,
      "ires": 1972,
      "ium": 1973,
      "iety": 1974,
      "lp": 1975,
      "night": 1976,
      "rous": 1977,
      "rap": 1978,
      "uc": 1979,
      "whe": 1980,
      "Ġide": 1981,
      "Ġwin": 1982,
      "Ġwant": 1983,
      "Ġmour": 1984,
      "Ġsad": 1985,
      "ati": 1986,
      "ative": 1987,
      "Ġburn": 1988,
      "Ġfield": 1989,
      "Ġhove": 1990,
      "Ġcor": 1991,
      "Ġcried": 1992,
      "ission": 1993,
      "itness": 1994,
      "itated": 1995,
      "itions": 1996,
      "Ġdr": 1997,
      "Ġdwell": 1998,
      "Ġdaughter": 1999,
      "Ġpen": 2000,
      "Ġpap": 2001,
      "Ġpast": 2002,
      "orse": 2003,
      "inguish": 2004,
      "Ġleav": 2005,
      "ĠeB": 2006,
      "icense": 2007,
      "Ġrender": 2008,
      "Ġwhy": 2009,
      "ows": 2010,
      "ident": 2011,
      "Ġanx": 2012,
      "ĠTur": 2013,
      "Ġfever": 2014,
      "Ġexcell": 2015,
      "Ġvol": 2016,
      "thing": 2017,
      "ĠAfter": 2018,
      "empl": 2019,
      "Ġspeed": 2020,
      "ĠHer": 2021,
      "ĠMont": 2022,
      "Ġallow": 2023,
      "Ġprospect": 2024,
      "Ġapparent": 2025,
      "usion": 2026,
      "osition": 2027,
      "Ġimmedi": 2028,
      "Ġarm": 2029,
      "Ġart": 2030,
      "cies": 2031,
      "Ġdoes": 2032,
      "Ġexpl": 2033,
      "Ġenthus": 2034,
      "Ġaccompan": 2035,
      "Ġobli": 2036,
      "Ġobtain": 2037,
      "Ġquest": 2038,
      "Ġfirm": 2039,
      "ĠThus": 2040,
      "ĠLet": 2041,
      "Ġdistur": 2042,
      "Ġdistance": 2043,
      "Ġprecip": 2044,
      "Ġpresence": 2045,
      "Ġgrat": 2046,
      "soci": 2047,
      "Ġincreas": 2048,
      "Ġawoke": 2049,
      "ĠWhy": 2050,
      "Ġreflected": 2051,
      "Ġpowers": 2052,
      "Ġsmiles": 2053,
      "Ġcondem": 2054,
      "Ġlabour": 2055,
      "Ġdeparted": 2056,
      "Ġremember": 2057,
      "Ġsilent": 2058,
      "Ġexpression": 2059,
      "ĠStates": 2060,
      "Ġbehold": 2061,
      "Ġsolitude": 2062,
      "Ġmarriage": 2063,
      "Ġphilosophy": 2064,
      "Ġhorrible": 2065,
      "Ġdescribe": 2066,
      "ĠUnited": 2067,
      "Ġignor": 2068,
      "Ġsolemn": 2069,
      "Ġvoyage": 2070,
      "Ġunfortunate": 2071,
      "Ġassured": 2072,
      "Ġsociety": 2073,
      "Ġstrength": 2074,
      "Ġhovel": 2075,
      "Ġenthusi": 2076,
      "bour": 2077,
      "cceed": 2078,
      "eks": 2079,
      "ft": 2080,
      "iosity": 2081,
      "kind": 2082,
      "leness": 2083,
      "par": 2084,
      "win": 2085,
      "Ġtend": 2086,
      "Ġtried": 2087,
      "Ġwaves": 2088,
      "Ġsim": 2089,
      "atred": 2090,
      "Ġbir": 2091,
      "Ġhon": 2092,
      "Ġhold": 2093,
      "Ġhatred": 2094,
      "Ġca": 2095,
      "iss": 2096,
      "iting": 2097,
      "Ġtold": 2098,
      "Ġpret": 2099,
      "Ġpaused": 2100,
      "Ġthou": 2101,
      "asion": 2102,
      "aring": 2103,
      "Ġlow": 2104,
      "Ġhab": 2105,
      "Ġhelp": 2106,
      "othing": 2107,
      "Ġgra": 2108,
      "Ġforward": 2109,
      "Ġforget": 2110,
      "rived": 2111,
      "Ġassoci": 2112,
      "Ġconst": 2113,
      "ĠTH": 2114,
      "Ġste": 2115,
      "Ġsucceed": 2116,
      "Ġexcept": 2117,
      "Ġshut": 2118,
      "chant": 2119,
      "Ġherself": 2120,
      "Ġwhether": 2121,
      "ool": 2122,
      "ĠSo": 2123,
      "ĠSw": 2124,
      "Ġword": 2125,
      "arted": 2126,
      "Ġamiable": 2127,
      "Ġagitation": 2128,
      "ĠBy": 2129,
      "Ġtruth": 2130,
      "ĠCh": 2131,
      "ishment": 2132,
      "Ġremorse": 2133,
      "Ġexpect": 2134,
      "Ġcompas": 2135,
      "ption": 2136,
      "Ġcontent": 2137,
      "Ġcontempl": 2138,
      "Ġaccess": 2139,
      "Ġcreated": 2140,
      "Ġgrasp": 2141,
      "Ġrock": 2142,
      "Ġformer": 2143,
      "Ġprison": 2144,
      "Ġrecovered": 2145,
      "Ġearly": 2146,
      "Ġevent": 2147,
      "rence": 2148,
      "Ġmoved": 2149,
      "Ġcompanions": 2150,
      "Ġdarkness": 2151,
      "Ġapproach": 2152,
      "Ġcharge": 2153,
      "Ġwretchedness": 2154,
      "Ġunderstood": 2155,
      "Ġlisten": 2156,
      "Ġsilence": 2157,
      "Ġsufferings": 2158,
      "Ġframe": 2159,
      "Ġcapable": 2160,
      "ĠAlas": 2161,
      "Ġwandered": 2162,
      "Ġsky": 2163,
      "iterary": 2164,
      "Ġtravell": 2165,
      "Ġbenevolent": 2166,
      "Ġpeople": 2167,
      "Ġadmiration": 2168,
      "Ġtranquillity": 2169,
      "ublic": 2170,
      "ency": 2171,
      "Ġlatter": 2172,
      "Ġconceal": 2173,
      "Ġscarce": 2174,
      "Ġideas": 2175,
      "It": 2176,
      "for": 2177,
      "ges": 2178,
      "ph": 2179,
      "pse": 2180,
      "part": 2181,
      "rance": 2182,
      "rnest": 2183,
      "ues": 2184,
      "Ġve": 2185,
      "Ġright": 2186,
      "Ġwitness": 2187,
      "Ġmention": 2188,
      "Ġought": 2189,
      "Ġsing": 2190,
      "ering": 2191,
      "erable": 2192,
      "ouds": 2193,
      "Ġbur": 2194,
      "Ġfore": 2195,
      "Ġhate": 2196,
      "isted": 2197,
      "Ġdare": 2198,
      "Ġdraw": 2199,
      "Ġparent": 2200,
      "Ġthrew": 2201,
      "asm": 2202,
      "asted": 2203,
      "Ġnur": 2204,
      "Ġetern": 2205,
      "cean": 2206,
      "oth": 2207,
      "Ġgone": 2208,
      "Ġgained": 2209,
      "irwin": 2210,
      "ries": 2211,
      "Ġconve": 2212,
      "pped": 2213,
      "Ġstory": 2214,
      "Ġfee": 2215,
      "Ġfeet": 2216,
      "Ġfeared": 2217,
      "Ġsust": 2218,
      "ady": 2219,
      "adem": 2220,
      "Ġalong": 2221,
      "seless": 2222,
      "ember": 2223,
      "Ġperp": 2224,
      "Ġperfect": 2225,
      "Ġagree": 2226,
      "agrap": 2227,
      "Ġnext": 2228,
      "ĠEven": 2229,
      "ĠErnest": 2230,
      "Ġtra": 2231,
      "cient": 2232,
      "cious": 2233,
      "Ġremains": 2234,
      "cked": 2235,
      "oney": 2236,
      "istrate": 2237,
      "Ġabove": 2238,
      "Ġmighty": 2239,
      "Ġattempt": 2240,
      "Ġfair": 2241,
      "Ġfail": 2242,
      "ĠLiterary": 2243,
      "itting": 2244,
      "Ġblind": 2245,
      "ignity": 2246,
      "Ġcommitted": 2247,
      "Ġconfir": 2248,
      "Ġemb": 2249,
      "Ġcrimes": 2250,
      "Ġinfl": 2251,
      "Ġexcess": 2252,
      "Ġreflection": 2253,
      "Ġpursued": 2254,
      "Ġbelieved": 2255,
      "Ġfamili": 2256,
      "Ġpresented": 2257,
      "Ġdecl": 2258,
      "Ġnorth": 2259,
      "Ġbestowed": 2260,
      "Ġcuriosity": 2261,
      "Ġaddressed": 2262,
      "Ġbetter": 2263,
      "Ġenjoyed": 2264,
      "Ġadvanced": 2265,
      "Ġwalk": 2266,
      "Ġardour": 2267,
      "eased": 2268,
      "Ġdirected": 2269,
      "Ġmagistrate": 2270,
      "Ġfavourite": 2271,
      "ĠKirwin": 2272,
      "Ġcircumstances": 2273,
      "Ġemployed": 2274,
      "Ġwatching": 2275,
      "Ġremembered": 2276,
      "Ġmotion": 2277,
      "Ġparagrap": 2278,
      "Ġsurprised": 2279,
      "Ġtorture": 2280,
      "Ġdevoted": 2281,
      "Ġprotectors": 2282,
      "Ġhideous": 2283,
      "Ġproduced": 2284,
      "Ġundertaking": 2285,
      "ĠArchive": 2286,
      "Ġdivine": 2287,
      "Ġfrightful": 2288,
      "Ġcommunic": 2289,
      "ĠArabian": 2290,
      "Ġexcellent": 2291,
      "Ġcompassion": 2292,
      "Ġscarcely": 2293,
      "ademark": 2294,
      "Ġparagraph": 2295,
      "hine": 2296,
      "lish": 2297,
      "nce": 2298,
      "nown": 2299,
      "wed": 2300,
      "Ġage": 2301,
      "Ġapart": 2302,
      "inal": 2303,
      "Ġwre": 2304,
      "Ġwis": 2305,
      "Ġmed": 2306,
      "Ġmut": 2307,
      "Ġmus": 2308,
      "Ġmaster": 2309,
      "Ġsla": 2310,
      "Ġsign": 2311,
      "Ġslight": 2312,
      "Ġsense": 2313,
      "Ġsledge": 2314,
      "atory": 2315,
      "attered": 2316,
      "Ġbreat": 2317,
      "Ġbree": 2318,
      "Ġbooks": 2319,
      "Ġfig": 2320,
      "Ġfled": 2321,
      "Ġfancy": 2322,
      "Ġhur": 2323,
      "Ġhither": 2324,
      "Ġcity": 2325,
      "Ġdro": 2326,
      "Ġpost": 2327,
      "Ġpaid": 2328,
      "orne": 2329,
      "Ġrene": 2330,
      "ceiving": 2331,
      "Ġgard": 2332,
      "alt": 2333,
      "idents": 2334,
      "Ġconject": 2335,
      "Ġconceived": 2336,
      "aying": 2337,
      "Ġsusp": 2338,
      "amp": 2339,
      "amed": 2340,
      "ections": 2341,
      "Ġshad": 2342,
      "Ġshud": 2343,
      "Ġseason": 2344,
      "thy": 2345,
      "ested": 2346,
      "resh": 2347,
      "lace": 2348,
      "Ġunw": 2349,
      "ĠSuch": 2350,
      "ĠMar": 2351,
      "Ġprob": 2352,
      "antic": 2353,
      "elt": 2354,
      "ush": 2355,
      "Ġtrademark": 2356,
      "Ġenough": 2357,
      "Ġnoble": 2358,
      "ĠFrom": 2359,
      "Ġexpected": 2360,
      "Ġthemselves": 2361,
      "Ġgreatly": 2362,
      "Ġdistinct": 2363,
      "Ġbranc": 2364,
      "Ġevening": 2365,
      "Ġclouds": 2366,
      "ĠDe": 2367,
      "Ġrecord": 2368,
      "Ġ17": 2369,
      "Ġearnest": 2370,
      "Ġoccasion": 2371,
      "Ġplan": 2372,
      "Ġpassions": 2373,
      "Ġpleasant": 2374,
      "Ġsensation": 2375,
      "Ġexcited": 2376,
      "Ġchem": 2377,
      "Ġtorment": 2378,
      "Ġarrive": 2379,
      "Ġpromised": 2380,
      "Ġoccupations": 2381,
      "Ġfollowing": 2382,
      "Ġdegrees": 2383,
      "Ġstudies": 2384,
      "Ġdevil": 2385,
      "Ġassist": 2386,
      "Ġleast": 2387,
      "Ġwoods": 2388,
      "Ġcharact": 2389,
      "Ġlistened": 2390,
      "Ġjustice": 2391,
      "ĠEnglish": 2392,
      "Ġobjects": 2393,
      "Ġdreams": 2394,
      "Ġdreadful": 2395,
      "Ġmagn": 2396,
      "Ġvirtue": 2397,
      "Ġclear": 2398,
      "Ġlimbs": 2399,
      "Ġriver": 2400,
      "Ġelev": 2401,
      "Ġhunger": 2402,
      "Ġsatisfied": 2403,
      "Ġspring": 2404,
      "Ġvillage": 2405,
      "Ġdonations": 2406,
      "Ġfatigue": 2407,
      "Ġwinter": 2408,
      "ĠTurk": 2409,
      "Ġobliged": 2410,
      "Ġincreased": 2411,
      "Ġhonour": 2412,
      "Ġconvey": 2413,
      "Ġhitherto": 2414,
      "Ġbranches": 2415,
      "Do": 2416,
      "ER": 2417,
      "aust": 2418,
      "bur": 2419,
      "ix": 2420,
      "ior": 2421,
      "iet": 2422,
      "known": 2423,
      "lc": 2424,
      "of": 2425,
      "ole": 2426,
      "ror": 2427,
      "ually": 2428,
      "ying": 2429,
      "Ġten": 2430,
      "Ġtear": 2431,
      "Ġtimes": 2432,
      "rent": 2433,
      "Ġwife": 2434,
      "Ġmid": 2435,
      "Ġmild": 2436,
      "Ġmoney": 2437,
      "Ġocean": 2438,
      "Ġsink": 2439,
      "Ġbright": 2440,
      "Ġfro": 2441,
      "Ġfresh": 2442,
      "Ġcab": 2443,
      "Ġclo": 2444,
      "Ġclaim": 2445,
      "Ġceased": 2446,
      "itary": 2447,
      "Ġdom": 2448,
      "Ġpity": 2449,
      "Ġpeas": 2450,
      "Ġpublic": 2451,
      "Ġthing": 2452,
      "Ġthings": 2453,
      "anished": 2454,
      "Ġlif": 2455,
      "Ġlady": 2456,
      "Ġhair": 2457,
      "Ġrelie": 2458,
      "Ġwhite": 2459,
      "vel": 2460,
      "semb": 2461,
      "Ġmet": 2462,
      "urm": 2463,
      "verse": 2464,
      "Ġdeform": 2465,
      "Ġasp": 2466,
      "Ġwelc": 2467,
      "Ġange": 2468,
      "ĠTo": 2469,
      "Ġstars": 2470,
      "amb": 2471,
      "Ġvast": 2472,
      "ulated": 2473,
      "estic": 2474,
      "Ġdispl": 2475,
      "Ġalter": 2476,
      "Ġalarm": 2477,
      "Ġround": 2478,
      "Ġmankind": 2479,
      "olate": 2480,
      "Ġneg": 2481,
      "Ġneed": 2482,
      "Ġneigh": 2483,
      "Ġremark": 2484,
      "Ġretreat": 2485,
      "akes": 2486,
      "Ġoverwhe": 2487,
      "Ġattract": 2488,
      "Ġdestiny": 2489,
      "Ġprin": 2490,
      "Ġinclud": 2491,
      "Ġlonged": 2492,
      "Ġparticul": 2493,
      "Ġblue": 2494,
      "icked": 2495,
      "Ġdespond": 2496,
      "Ġpossible": 2497,
      "Ġemot": 2498,
      "Ġwaters": 2499,
      "versity": 2500,
      "Ġdetail": 2501,
      "Ġdifficul": 2502,
      "Ġflow": 2503,
      "Ġrelated": 2504,
      "Ġconsidered": 2505,
      "Ġobsc": 2506,
      "prise": 2507,
      "Ġwarmth": 2508,
      "Ġbehind": 2509,
      "Ġbeneath": 2510,
      "Ġguilty": 2511,
      "Ġutterly": 2512,
      "Ġbroken": 2513,
      "Ġcertainly": 2514,
      "Ġabhorred": 2515,
      "Ġduty": 2516,
      "Ġduties": 2517,
      "Ġexhib": 2518,
      "Ġspecies": 2519,
      "Ġcarried": 2520,
      "Ġdisappo": 2521,
      "Ġruin": 2522,
      "Ġinhabitants": 2523,
      "Ġrapidly": 2524,
      "Ġexperienced": 2525,
      "Ġinformation": 2526,
      "Ġgazed": 2527,
      "Ġtrembled": 2528,
      "Ġpicture": 2529,
      "Ġmourn": 2530,
      "Ġleaves": 2531,
      "Ġcondemned": 2532,
      "Ġignorant": 2533,
      "Ġenthusiasm": 2534,
      "Ġparents": 2535,
      "Ġeternal": 2536,
      "Ġfigure": 2537,
      "burgh": 2538,
      "Ġoverwhel": 2539,
      "Ġdifficulty": 2540,
      "IT": 2541,
      "RA": 2542,
      "cri": 2543,
      "ead": 2544,
      "ease": 2545,
      "gare": 2546,
      "his": 2547,
      "rated": 2548,
      "und": 2549,
      "uous": 2550,
      "uck": 2551,
      "under": 2552,
      "uced": 2553,
      "ww": 2554,
      "Ġte": 2555,
      "Ġaut": 2556,
      "Ġaid": 2557,
      "inced": 2558,
      "Ġwound": 2559,
      "Ġthee": 2560,
      "Ġori": 2561,
      "Ġser": 2562,
      "Ġsides": 2563,
      "Ġslow": 2564,
      "ery": 2565,
      "erland": 2566,
      "Ġbos": 2567,
      "ences": 2568,
      "Ġfal": 2569,
      "Ġfive": 2570,
      "Ġhills": 2571,
      "Ġcaused": 2572,
      "Ġder": 2573,
      "Ġdri": 2574,
      "orious": 2575,
      "Ġthree": 2576,
      "Ġthunder": 2577,
      "Ġinsp": 2578,
      "Ġlu": 2579,
      "iced": 2580,
      "Ġbelong": 2581,
      "Ġhero": 2582,
      "Ġmeant": 2583,
      "iment": 2584,
      "Ġgre": 2585,
      "Ġgro": 2586,
      "verty": 2587,
      "Ġund": 2588,
      "Ġforg": 2589,
      "Ġdef": 2590,
      "Ġask": 2591,
      "Ġweak": 2592,
      "aint": 2593,
      "Ġconn": 2594,
      "Ġconse": 2595,
      "Ġconceive": 2596,
      "ability": 2597,
      "Ġstood": 2598,
      "Ġstorm": 2599,
      "Ġsurely": 2600,
      "Ġexer": 2601,
      "Ġval": 2602,
      "Ġvall": 2603,
      "ified": 2604,
      "Ġshap": 2605,
      "Ġshone": 2606,
      "ourse": 2607,
      "Ġsoft": 2608,
      "uls": 2609,
      "ĠTheir": 2610,
      "ĠAll": 2611,
      "Ġdisg": 2612,
      "oose": 2613,
      "Ġrav": 2614,
      "Ġrushed": 2615,
      "ĠSe": 2616,
      "ĠSome": 2617,
      "endous": 2618,
      "ĠMan": 2619,
      "ustomed": 2620,
      "Ġapplic": 2621,
      "Ġchanged": 2622,
      "Ġchief": 2623,
      "Ġintell": 2624,
      "ope": 2625,
      "ĠEvery": 2626,
      "Ġarg": 2627,
      "ortun": 2628,
      "anding": 2629,
      "arewell": 2630,
      "Ġexplan": 2631,
      "ept": 2632,
      "Ġcomplete": 2633,
      "Ġcontr": 2634,
      "Ġaccustomed": 2635,
      "retched": 2636,
      "ĠOF": 2637,
      "Ġfact": 2638,
      "Ġresidence": 2639,
      "Ġindul": 2640,
      "lected": 2641,
      "ĠLicense": 2642,
      "Ġdistant": 2643,
      "lock": 2644,
      "Ġprey": 2645,
      "Ġimposs": 2646,
      "Ġrepose": 2647,
      "Ġknown": 2648,
      "Ġpressed": 2649,
      "Ġreturning": 2650,
      "Ġpoverty": 2651,
      "Ġforms": 2652,
      "Ġdeprived": 2653,
      "Ġloath": 2654,
      "Ġinstead": 2655,
      "anks": 2656,
      "Ġfond": 2657,
      "Ġevidence": 2658,
      "Ġfears": 2659,
      "Ġsupposed": 2660,
      "Ġmock": 2661,
      "Ġcourt": 2662,
      "Ġgentleness": 2663,
      "Ġwrite": 2664,
      "Ġphys": 2665,
      "Ġgover": 2666,
      "Ġenterprise": 2667,
      "Ġbitterly": 2668,
      "Ġterrif": 2669,
      "Ġterrible": 2670,
      "Ġterror": 2671,
      "Ġardent": 2672,
      "Ġardently": 2673,
      "Ġconsiderable": 2674,
      "Ġmodern": 2675,
      "Ġsolitary": 2676,
      "Ġprovided": 2677,
      "Ġcollected": 2678,
      "gether": 2679,
      "Ġminut": 2680,
      "Ġfatal": 2681,
      "Ġpersuade": 2682,
      "Ġcircumstance": 2683,
      "Ġremembrance": 2684,
      "Ġpermission": 2685,
      "Ġgloomy": 2686,
      "Ġtrial": 2687,
      "Ġtrium": 2688,
      "Ġreality": 2689,
      "Ġprocure": 2690,
      "Ġmarked": 2691,
      "Ġeduc": 2692,
      "Ġrecollection": 2693,
      "Ġsuperior": 2694,
      "Ġsailors": 2695,
      "Ġsituation": 2696,
      "Ġfulfil": 2697,
      "Ġbreak": 2698,
      "itzerland": 2699,
      "Ġsafety": 2700,
      "ĠParis": 2701,
      "Ġburning": 2702,
      "Ġcorpse": 2703,
      "Ġdwelling": 2704,
      "Ġpenet": 2705,
      "Ġapparently": 2706,
      "Ġassociated": 2707,
      "ĠSwitzerland": 2708,
      "Ġfamiliar": 2709,
      "Ġbreeze": 2710,
      "Ġgarden": 2711,
      "ĠMargare": 2712,
      "Ġmagnific": 2713,
      "Ġcabin": 2714,
      "Ġlifeless": 2715,
      "Ġneighbour": 2716,
      "Ġbosom": 2717,
      "Ġvalley": 2718,
      "ĠMargaret": 2719,
      "._": 2720,
      "CT": 2721,
      "RE": 2722,
      "_,": 2723,
      "aly": 2724,
      "ald": 2725,
      "ech": 2726,
      "gutenberg": 2727,
      "ming": 2728,
      "og": 2729,
      "ock": 2730,
      "ship": 2731,
      "Ġ3": 2732,
      "Ġ5": 2733,
      "Ġur": 2734,
      "Ġtell": 2735,
      "Ġaro": 2736,
      "Ġaunt": 2737,
      "Ġalive": 2738,
      "inary": 2739,
      "Ġma": 2740,
      "Ġmove": 2741,
      "Ġmort": 2742,
      "Ġmult": 2743,
      "erness": 2744,
      "Ġbent": 2745,
      "Ġbloom": 2746,
      "Ġboth": 2747,
      "Ġfly": 2748,
      "Ġfur": 2749,
      "Ġhig": 2750,
      "Ġharm": 2751,
      "Ġcase": 2752,
      "itate": 2753,
      "Ġdone": 2754,
      "Ġtogether": 2755,
      "org": 2756,
      "Ġthick": 2757,
      "arge": 2758,
      "Ġnort": 2759,
      "Ġlect": 2760,
      "Ġlie": 2761,
      "Ġreally": 2762,
      "Ġreceive": 2763,
      "Ġheav": 2764,
      "Ġwhil": 2765,
      "entions": 2766,
      "Ġyear": 2767,
      "imate": 2768,
      "iminal": 2769,
      "Ġgla": 2770,
      "versed": 2771,
      "Ġuseless": 2772,
      "alities": 2773,
      "Ġforced": 2774,
      "Ġdelive": 2775,
      "Ġascend": 2776,
      "Ġweather": 2777,
      "amber": 2778,
      "ift": 2779,
      "Ġsearch": 2780,
      "ource": 2781,
      "Ġsoot": 2782,
      "allowed": 2783,
      "ĠAm": 2784,
      "Ġisland": 2785,
      "Ġdiss": 2786,
      "Ġrise": 2787,
      "ĠSh": 2788,
      "empted": 2789,
      "ĠMor": 2790,
      "ĠWith": 2791,
      "ĠWald": 2792,
      "umber": 2793,
      "Ġappre": 2794,
      "Ġamuse": 2795,
      "ĠBl": 2796,
      "Ġneck": 2797,
      "Ġtrace": 2798,
      "Ġdog": 2799,
      "unge": 2800,
      "angers": 2801,
      "Ġable": 2802,
      "Ġliving": 2803,
      "Ġanyone": 2804,
      "Ġmiseries": 2805,
      "ĠYour": 2806,
      "Ġattended": 2807,
      "Ġattempted": 2808,
      "Ġhappened": 2809,
      "Ġindign": 2810,
      "ĠLace": 2811,
      "Ġdistinguished": 2812,
      "Ġstrug": 2813,
      "Ġstruck": 2814,
      "Ġprec": 2815,
      "Ġpreced": 2816,
      "Ġhoped": 2817,
      "Ġpron": 2818,
      "Ġrestore": 2819,
      "Ġloc": 2820,
      "rempe": 2821,
      "Ġplain": 2822,
      "Ġpassage": 2823,
      "Ġsurv": 2824,
      "Ġcriminal": 2825,
      "Ġthrown": 2826,
      "Ġlooks": 2827,
      "Ġlooking": 2828,
      "Ġfearful": 2829,
      "Ġsunk": 2830,
      "acity": 2831,
      "Ġsmile": 2832,
      "Ġpossession": 2833,
      "Ġwindow": 2834,
      "Ġsouth": 2835,
      "Ġinterr": 2836,
      "Ġcountenances": 2837,
      "Ġimagined": 2838,
      "Ġglad": 2839,
      "Ġuttered": 2840,
      "ception": 2841,
      "Ġsecure": 2842,
      "Ġcreate": 2843,
      "Ġconcl": 2844,
      "Ġcurse": 2845,
      "Ġrelate": 2846,
      "Ġyounger": 2847,
      "Ġillness": 2848,
      "Ġstream": 2849,
      "Ġenjoyment": 2850,
      "ibly": 2851,
      "Ġanimal": 2852,
      "Ġeffort": 2853,
      "Ġprovide": 2854,
      "Ġcollect": 2855,
      "Ġminute": 2856,
      "Ġhastened": 2857,
      "ĠKrempe": 2858,
      "Ġdistributing": 2859,
      "Ġviolence": 2860,
      "Ġmadness": 2861,
      "Ġspeech": 2862,
      "Ġjudge": 2863,
      "Ġfallen": 2864,
      "Ġconvinced": 2865,
      "Ġperformed": 2866,
      "Ġendeavouring": 2867,
      "Ġeagerly": 2868,
      "Ġdisappeared": 2869,
      "Ġavo": 2870,
      "Ġmateri": 2871,
      "Ġrevol": 2872,
      "Ġkeep": 2873,
      "Ġinex": 2874,
      "Ġrespect": 2875,
      "Ġfortune": 2876,
      "Ġescape": 2877,
      "Ġtoils": 2878,
      "Ġaccordingly": 2879,
      "Ġbeginning": 2880,
      "Ġfields": 2881,
      "Ġimmediate": 2882,
      "Ġarms": 2883,
      "Ġaccompanied": 2884,
      "Ġquestion": 2885,
      "ĠSoon": 2886,
      "Ġcontemplated": 2887,
      "Ġwitnesses": 2888,
      "Ġburst": 2889,
      "Ġnurse": 2890,
      "Ġperpet": 2891,
      "Ġapartment": 2892,
      "Ġcharacter": 2893,
      "Ġincluding": 2894,
      "Ġobscure": 2895,
      "Ġfalse": 2896,
      "Ġlux": 2897,
      "Ġmeantime": 2898,
      "Ġargum": 2899,
      "Ġexplanation": 2900,
      "Ġurged": 2901,
      "Ġarose": 2902,
      "Ġwhilst": 2903,
      "ĠWaldman": 2904,
      "ĠLacey": 2905,
      "Ġstrugg": 2906,
      "**": 2907,
      "ND": 2908,
      "This": 2909,
      "When": 2910,
      "bar": 2911,
      "bition": 2912,
      "cing": 2913,
      "ding": 2914,
      "day": 2915,
      "ev": 2916,
      "ellow": 2917,
      "gone": 2918,
      "iver": 2919,
      "iversity": 2920,
      "jud": 2921,
      "ls": 2922,
      "oved": 2923,
      "phe": 2924,
      "rained": 2925,
      "uly": 2926,
      "uli": 2927,
      "wise": 2928,
      "what": 2929,
      "Ġty": 2930,
      "Ġtou": 2931,
      "Ġtast": 2932,
      "Ġtaking": 2933,
      "inted": 2934,
      "inations": 2935,
      "Ġwicked": 2936,
      "Ġwww": 2937,
      "Ġshed": 2938,
      "Ġside": 2939,
      "ndrous": 2940,
      "erate": 2941,
      "atural": 2942,
      "oused": 2943,
      "Ġboy": 2944,
      "Ġbanks": 2945,
      "ones": 2946,
      "Ġcult": 2947,
      "ism": 2948,
      "ision": 2949,
      "Ġpec": 2950,
      "anish": 2951,
      "assed": 2952,
      "arily": 2953,
      "Ġmyster": 2954,
      "Ġnea": 2955,
      "Ġnerv": 2956,
      "Ġlose": 2957,
      "Ġloud": 2958,
      "Ġloose": 2959,
      "Ġlarge": 2960,
      "Ġeither": 2961,
      "omm": 2962,
      "ics": 2963,
      "Ġbef": 2964,
      "Ġreve": 2965,
      "Ġreli": 2966,
      "uted": 2967,
      "Ġheat": 2968,
      "Ġheld": 2969,
      "Ġyield": 2970,
      "ote": 2971,
      "owing": 2972,
      "ursed": 2973,
      "Ġgen": 2974,
      "Ġgain": 2975,
      "iding": 2976,
      "idst": 2977,
      "Ġdeck": 2978,
      "ripp": 2979,
      "Ġweek": 2980,
      "Ġann": 2981,
      "Ġancient": 2982,
      "Ġstraw": 2983,
      "Ġstretched": 2984,
      "Ġfem": 2985,
      "Ġvent": 2986,
      "Ġvice": 2987,
      "Ġship": 2988,
      "ular": 2989,
      "ulse": 2990,
      "ĠAb": 2991,
      "ĠAn": 2992,
      "quis": 2993,
      "eau": 2994,
      "Ġrank": 2995,
      "Ġrising": 2996,
      "Ġramb": 2997,
      "Ġune": 2998,
      "ĠSc": 2999,
      "Ġsake": 3000,
      "ĠWalt": 3001,
      "Ġcomfort": 3002,
      "Ġappar": 3003,
      "Ġapply": 3004,
      "Ġappears": 3005,
      "Ġdesign": 3006,
      "Ġdesolate": 3007,
      "Ġambition": 3008,
      "Ġintro": 3009,
      "Ġdoing": 3010,
      "Ġliber": 3011,
      "Ġworked": 3012,
      "Ġthank": 3013,
      "Ġotherwise": 3014,
      "ĠOR": 3015,
      "ĠOur": 3016,
      "Ġfailed": 3017,
      "ĠLond": 3018,
      "Ġimpressed": 3019,
      "Ġimpati": 3020,
      "Ġpresently": 3021,
      "Ġaffections": 3022,
      "itten": 3023,
      "Ġseeing": 3024,
      "Ġincl": 3025,
      "Ġears": 3026,
      "Ġpartly": 3027,
      "Ġlover": 3028,
      "Ġinstruct": 3029,
      "ĠNothing": 3030,
      "Ġpassing": 3031,
      "Ġpleased": 3032,
      "Ġguest": 3033,
      "Ġcrow": 3034,
      "Ġsenses": 3035,
      "Ġinfant": 3036,
      "ĠWho": 3037,
      "ĠWhile": 3038,
      "Ġwoe": 3039,
      "Ġwondrous": 3040,
      "ipate": 3041,
      "rench": 3042,
      "Ġwinds": 3043,
      "Ġarrival": 3044,
      "Ġregret": 3045,
      "Ġcopies": 3046,
      "Ġresolution": 3047,
      "Ġcondition": 3048,
      "Ġsecond": 3049,
      "intment": 3050,
      "Ġlead": 3051,
      "Ġgoing": 3052,
      "Ġslept": 3053,
      "Ġsincerely": 3054,
      "Ġswell": 3055,
      "Ġbitterness": 3056,
      "Ġlively": 3057,
      "ĠAgripp": 3058,
      "Ġleag": 3059,
      "Ġlearn": 3060,
      "Ġoppos": 3061,
      "Ġinhabited": 3062,
      "Ġdetermination": 3063,
      "Ġrefund": 3064,
      "Ġrefuse": 3065,
      "Ġrefuge": 3066,
      "Ġirre": 3067,
      "Ġhasten": 3068,
      "Ġuncle": 3069,
      "Ġproportion": 3070,
      "Ġvirtues": 3071,
      "Ġviolent": 3072,
      "ification": 3073,
      "Ġselfish": 3074,
      "Ġphilosopher": 3075,
      "Ġprepared": 3076,
      "Ġsurprise": 3077,
      "Ġservant": 3078,
      "Ġexhaust": 3079,
      "Ġprevent": 3080,
      "Ġprevious": 3081,
      "Ġdelay": 3082,
      "Ġprocured": 3083,
      "Ġsummit": 3084,
      "Ġtemper": 3085,
      "Ġhiding": 3086,
      "Ġexecution": 3087,
      "Ġwaited": 3088,
      "Ġexertion": 3089,
      "Ġjoin": 3090,
      "Ġimprove": 3091,
      "Ġimproved": 3092,
      "Ġastonishing": 3093,
      "Ġmerchant": 3094,
      "Ġfrequ": 3095,
      "Ġdawn": 3096,
      "Ġdaily": 3097,
      "Ġdescended": 3098,
      "Ġstrongly": 3099,
      "Ġinstrument": 3100,
      "Ġinstruments": 3101,
      "Ġpapers": 3102,
      "ĠeBook": 3103,
      "Ġanxiety": 3104,
      "Ġvolunt": 3105,
      "ĠLetter": 3106,
      "Ġdisturbed": 3107,
      "Ġgratitude": 3108,
      "Ġbirth": 3109,
      "Ġconstant": 3110,
      "ĠTHE": 3111,
      "Ġsucceeded": 3112,
      "Ġsingle": 3113,
      "Ġperfectly": 3114,
      "Ġconfirmed": 3115,
      "Ġshadow": 3116,
      "Ġrelieve": 3117,
      "Ġdeformity": 3118,
      "Ġangel": 3119,
      "Ġprincip": 3120,
      "Ġemotions": 3121,
      "Ġexhibited": 3122,
      "Ġteeth": 3123,
      "Ġorig": 3124,
      "Ġexerc": 3125,
      "Ġimpossible": 3126,
      "Ġgovern": 3127,
      "Ġterrific": 3128,
      "Ġminutes": 3129,
      "Ġtriumph": 3130,
      "Ġmagnificent": 3131,
      "Ġmaj": 3132,
      "Ġglaci": 3133,
      "ĠBlanc": 3134,
      "Ġpronoun": 3135,
      "Ġcultiv": 3136,
      "Ġpeculi": 3137,
      "Ġnearer": 3138,
      "ĠWalton": 3139,
      "ĠLondon": 3140,
      "ĠAgrippa": 3141,
      "?âĢĻ": 3142,
      "AR": 3143,
      "As": 3144,
      "Be": 3145,
      "But": 3146,
      "IS": 3147,
      "NT": 3148,
      "OU": 3149,
      "RO": 3150,
      "SE": 3151,
      "UT": 3152,
      "ax": 3153,
      "cst": 3154,
      "cent": 3155,
      "cid": 3156,
      "clock": 3157,
      "dered": 3158,
      "duct": 3159,
      "een": 3160,
      "eem": 3161,
      "ging": 3162,
      "how": 3163,
      "ia": 3164,
      "iant": 3165,
      "jo": 3166,
      "lime": 3167,
      "liness": 3168,
      "my": 3169,
      "natural": 3170,
      "oor": 3171,
      "psed": 3172,
      "rad": 3173,
      "tic": 3174,
      "tained": 3175,
      "uce": 3176,
      "with": 3177,
      "yond": 3178,
      "Ġ4": 3179,
      "Ġer": 3180,
      "Ġtreat": 3181,
      "Ġtum": 3182,
      "Ġtaught": 3183,
      "Ġtax": 3184,
      "Ġaug": 3185,
      "hem": 3186,
      "hend": 3187,
      "hered": 3188,
      "ins": 3189,
      "ining": 3190,
      "rest": 3191,
      "ream": 3192,
      "rene": 3193,
      "Ġwide": 3194,
      "Ġmil": 3195,
      "Ġoper": 3196,
      "Ġsir": 3197,
      "Ġsch": 3198,
      "eral": 3199,
      "atus": 3200,
      "atures": 3201,
      "Ġbore": 3202,
      "Ġbare": 3203,
      "ening": 3204,
      "Ġfing": 3205,
      "Ġfil": 3206,
      "Ġflo": 3207,
      "Ġhut": 3208,
      "Ġhired": 3209,
      "Ġhars": 3210,
      "Ġhanging": 3211,
      "Ġcow": 3212,
      "Ġcred": 3213,
      "Ġcease": 3214,
      "itive": 3215,
      "Ġden": 3216,
      "Ġdim": 3217,
      "Ġdry": 3218,
      "Ġpal": 3219,
      "Ġpri": 3220,
      "Ġpay": 3221,
      "Ġpract": 3222,
      "Ġportion": 3223,
      "oratory": 3224,
      "ashed": 3225,
      "Ġlate": 3226,
      "Ġlau": 3227,
      "Ġlink": 3228,
      "Ġela": 3229,
      "Ġecst": 3230,
      "Ġbeat": 3231,
      "Ġbeyond": 3232,
      "Ġred": 3233,
      "Ġrever": 3234,
      "Ġreward": 3235,
      "Ġreached": 3236,
      "Ġwhis": 3237,
      "Ġgay": 3238,
      "Ġusu": 3239,
      "Ġforb": 3240,
      "Ġdeed": 3241,
      "Ġweight": 3242,
      "Ġnotice": 3243,
      "Ġstature": 3244,
      "Ġfeatures": 3245,
      "Ġexceed": 3246,
      "ament": 3247,
      "ectual": 3248,
      "ify": 3249,
      "Ġshri": 3250,
      "Ġshowed": 3251,
      "Ġserene": 3252,
      "that": 3253,
      "ulous": 3254,
      "Ġdism": 3255,
      "eaven": 3256,
      "Ġran": 3257,
      "Ġroused": 3258,
      "Ġunlike": 3259,
      "Ġunknown": 3260,
      "Ġuniversity": 3261,
      "ĠSection": 3262,
      "Ġsac": 3263,
      "Ġsaved": 3264,
      "Ġprove": 3265,
      "Ġcomb": 3266,
      "antity": 3267,
      "ume": 3268,
      "umed": 3269,
      "Ġperse": 3270,
      "Ġperceive": 3271,
      "Ġchamber": 3272,
      "uses": 3273,
      "Ġamidst": 3274,
      "Ġintense": 3275,
      "Ġago": 3276,
      "Ġagon": 3277,
      "Ġagitated": 3278,
      "ĠBel": 3279,
      "ĠBeau": 3280,
      "Ġneither": 3281,
      "ositions": 3282,
      "Ġtroub": 3283,
      "Ġenv": 3284,
      "ĠFrench": 3285,
      "ĠPer": 3286,
      "ĠPRO": 3287,
      "ighed": 3288,
      "Ġcomple": 3289,
      "fulness": 3290,
      "ode": 3291,
      "Ġlives": 3292,
      "Ġanything": 3293,
      "Ġaccused": 3294,
      "Ġaccident": 3295,
      "Ġobtained": 3296,
      "Ġquantity": 3297,
      "Ġconsole": 3298,
      "âĢĶ.": 3299,
      "Ġadvers": 3300,
      "Ġattached": 3301,
      "ĠOf": 3302,
      "Ġresult": 3303,
      "erving": 3304,
      "ĠLI": 3305,
      "ĠLe": 3306,
      "Ġdistinguish": 3307,
      "Ġimpress": 3308,
      "ĠItaly": 3309,
      "Ġgrad": 3310,
      "Ġroad": 3311,
      "iction": 3312,
      "ivid": 3313,
      "Ġblasted": 3314,
      "ĠNor": 3315,
      "Ġfix": 3316,
      "Ġfoot": 3317,
      "Ġusing": 3318,
      "Ġcommenced": 3319,
      "Ġplans": 3320,
      "Ġconfined": 3321,
      "Ġcontinue": 3322,
      "Ġcheeks": 3323,
      "upted": 3324,
      "Ġextinguished": 3325,
      "Ġextinguish": 3326,
      "Ġfriendship": 3327,
      "itional": 3328,
      "Ġendeavours": 3329,
      "Ġsuppose": 3330,
      "Ġinterval": 3331,
      "ĠRem": 3332,
      "ĠRhine": 3333,
      "Ġhardship": 3334,
      "Ġnews": 3335,
      "Ġaffectionate": 3336,
      "Ġdelighted": 3337,
      "Ġsublime": 3338,
      "Ġglory": 3339,
      "Ġoccupation": 3340,
      "Ġlaboratory": 3341,
      "Ġcrept": 3342,
      "Ġwritten": 3343,
      "Ġadded": 3344,
      "Ġpeaceful": 3345,
      "Ġlean": 3346,
      "Ġremaining": 3347,
      "Ġexpressive": 3348,
      "Ġtremendous": 3349,
      "Ġopportun": 3350,
      "Ġfinding": 3351,
      "Ġrequest": 3352,
      "Ġrequired": 3353,
      "Ġanimation": 3354,
      "Ġanimated": 3355,
      "Ġenemies": 3356,
      "Ġswear": 3357,
      "Ġboard": 3358,
      "ounter": 3359,
      "Ġanswered": 3360,
      "Ġwander": 3361,
      "Ġsorrowful": 3362,
      "Ġfavourable": 3363,
      "Ġdiscoveries": 3364,
      "Ġpropert": 3365,
      "Ġpersuaded": 3366,
      "Ġsnowy": 3367,
      "Ġtranquil": 3368,
      "Ġovercame": 3369,
      "Ġpermitted": 3370,
      "Ġdescribed": 3371,
      "Ġbenevolence": 3372,
      "Ġsentence": 3373,
      "Ġdispositions": 3374,
      "Ġsummer": 3375,
      "Ġdoubtless": 3376,
      "Ġabsence": 3377,
      "Ġsatisfy": 3378,
      "peci": 3379,
      "ĠBefore": 3380,
      "Ġencounter": 3381,
      "Ġexperience": 3382,
      "Ġfulfilled": 3383,
      "Ġmalice": 3384,
      "Ġmalignity": 3385,
      "Ġbeside": 3386,
      "Ġbesides": 3387,
      "Ġfinished": 3388,
      "Ġhellish": 3389,
      "Ġsafe": 3390,
      "Ġconsumm": 3391,
      "Ġeffects": 3392,
      "Ġfortunate": 3393,
      "Ġescaped": 3394,
      "Ġbusy": 3395,
      "Ġfreed": 3396,
      "Ġraised": 3397,
      "Ġprofessor": 3398,
      "Ġbenefit": 3399,
      "ĠeBooks": 3400,
      "Ġanxious": 3401,
      "Ġspeedily": 3402,
      "Ġprecipices": 3403,
      "Ġsimple": 3404,
      "Ġgrave": 3405,
      "Ġmentioned": 3406,
      "Ġwalking": 3407,
      "Ġwishes": 3408,
      "Ġhurried": 3409,
      "Ġconjectured": 3410,
      "Ġshudder": 3411,
      "Ġfrost": 3412,
      "Ġclosed": 3413,
      "velop": 3414,
      "Ġaspect": 3415,
      "Ġneglected": 3416,
      "Ġdisappointment": 3417,
      "Ġconnected": 3418,
      "Ġconsequ": 3419,
      "Ġshape": 3420,
      "Ġdisgust": 3421,
      "Ġapplication": 3422,
      "Ġeducation": 3423,
      "Ġmortal": 3424,
      "Ġnorther": 3425,
      "ĠMoritz": 3426,
      "Ġdogs": 3427,
      "Ġindignation": 3428,
      "Ġlocated": 3429,
      "Ġmaterials": 3430,
      "Ġarguments": 3431,
      "ĠAbout": 3432,
      "ĠScot": 3433,
      "Ġcrowd": 3434,
      "Ġopposite": 3435,
      "Ġtumult": 3436,
      "Ġharsh": 3437,
      "Ġelapsed": 3438,
      "ĠBeaufort": 3439,
      "Ġtroubled": 3440,
      "Ġadversary": 3441,
      ",âĢĻ": 3442,
      "And": 3443,
      "ED": 3444,
      "ES": 3445,
      "How": 3446,
      "Oh": 3447,
      "To": 3448,
      "That": 3449,
      "aff": 3450,
      "course": 3451,
      "ean": 3452,
      "eel": 3453,
      "eers": 3454,
      "gence": 3455,
      "ience": 3456,
      "ius": 3457,
      "lain": 3458,
      "last": 3459,
      "men": 3460,
      "no": 3461,
      "nal": 3462,
      "ring": 3463,
      "ric": 3464,
      "rase": 3465,
      "some": 3466,
      "uel": 3467,
      "zen": 3468,
      "Ãª": 3469,
      "Ġest": 3470,
      "rease": 3471,
      "Ġwet": 3472,
      "Ġwid": 3473,
      "Ġwall": 3474,
      "Ġmi": 3475,
      "Ġmir": 3476,
      "Ġmain": 3477,
      "Ġmiles": 3478,
      "erted": 3479,
      "erries": 3480,
      "Ġbu": 3481,
      "Ġble": 3482,
      "Ġbra": 3483,
      "Ġbook": 3484,
      "Ġbase": 3485,
      "Ġborne": 3486,
      "Ġberries": 3487,
      "Ġfit": 3488,
      "Ġfan": 3489,
      "Ġfun": 3490,
      "Ġfine": 3491,
      "Ġferv": 3492,
      "Ġfainted": 3493,
      "Ġfury": 3494,
      "ĠIs": 3495,
      "Ġhated": 3496,
      "Ġhund": 3497,
      "oned": 3498,
      "onst": 3499,
      "Ġcat": 3500,
      "Ġcust": 3501,
      "Ġcol": 3502,
      "issed": 3503,
      "Ġded": 3504,
      "Ġdam": 3505,
      "Ġdate": 3506,
      "Ġdress": 3507,
      "Ġdunge": 3508,
      "ester": 3509,
      "esides": 3510,
      "Ġport": 3511,
      "Ġpun": 3512,
      "Ġpale": 3513,
      "Ġpati": 3514,
      "asy": 3515,
      "ashes": 3516,
      "Ġlot": 3517,
      "Ġlest": 3518,
      "Ġlament": 3519,
      "Ġeat": 3520,
      "Ġelo": 3521,
      "lly": 3522,
      "oms": 3523,
      "ompl": 3524,
      "Ġhaunt": 3525,
      "icated": 3526,
      "ically": 3527,
      "Ġbear": 3528,
      "Ġreach": 3529,
      "Ġresemb": 3530,
      "standing": 3531,
      "vere": 3532,
      "enty": 3533,
      "otent": 3534,
      "Ġmeas": 3535,
      "Ġmeth": 3536,
      "Ġmerely": 3537,
      "ldom": 3538,
      "ghorn": 3539,
      "iments": 3540,
      "Ġgest": 3541,
      "Ġgrew": 3542,
      "Ġgives": 3543,
      "Ġused": 3544,
      "irium": 3545,
      "ality": 3546,
      "Ġforce": 3547,
      "Ġdefect": 3548,
      "Ġwealth": 3549,
      "Ġweeks": 3550,
      "Ġweighed": 3551,
      "Ġnotwith": 3552,
      "Ġconj": 3553,
      "Ġconception": 3554,
      "ĠTw": 3555,
      "Ġstarted": 3556,
      "ters": 3557,
      "Ġexquis": 3558,
      "illing": 3559,
      "Ġvanished": 3560,
      "lius": 3561,
      "Ġshock": 3562,
      "chief": 3563,
      "Ġseas": 3564,
      "Ġseldom": 3565,
      "Ġsolic": 3566,
      "ulation": 3567,
      "ulate": 3568,
      "alled": 3569,
      "ĠAd": 3570,
      "ĠAug": 3571,
      "qual": 3572,
      "resently": 3573,
      "Ġaloud": 3574,
      "Ġaltered": 3575,
      "inds": 3576,
      "Ġrude": 3577,
      "Ġrace": 3578,
      "Ġunb": 3579,
      "Ġunless": 3580,
      "Ġunited": 3581,
      "ĠSept": 3582,
      "Ġspend": 3583,
      "Ġspurn": 3584,
      "Ġspark": 3585,
      "ĠHeaven": 3586,
      "Ġproved": 3587,
      "Ġprolong": 3588,
      "Ġproof": 3589,
      "ustice": 3590,
      "Ġperish": 3591,
      "Ġperceiving": 3592,
      "Ġchance": 3593,
      "Ġchos": 3594,
      "Ġchair": 3595,
      "Ġcharm": 3596,
      "Ġdesolation": 3597,
      "ively": 3598,
      "Ġintend": 3599,
      "Ġintended": 3600,
      "ountable": 3601,
      "ĠBesides": 3602,
      "osing": 3603,
      "Ġimb": 3604,
      "Ġarise": 3605,
      "Ġtrain": 3606,
      "Ġtrust": 3607,
      "Ġenchant": 3608,
      "ĠCould": 3609,
      "ĠCorne": 3610,
      "Ġdoomed": 3611,
      "Ġremoved": 3612,
      "Ġexped": 3613,
      "igantic": 3614,
      "Ġcompre": 3615,
      "Ġcomplet": 3616,
      "angs": 3617,
      "iece": 3618,
      "Ġabode": 3619,
      "oded": 3620,
      "Ġaccum": 3621,
      "Ġaccents": 3622,
      "Ġaccompl": 3623,
      "suing": 3624,
      "Ġquiet": 3625,
      "Ġqualities": 3626,
      "ĠYOU": 3627,
      "Ġconscience": 3628,
      "Ġconscious": 3629,
      "Ġoverh": 3630,
      "Ġattach": 3631,
      "raced": 3632,
      "ĠOr": 3633,
      "Ġbecom": 3634,
      "Ġfaces": 3635,
      "Ġinduced": 3636,
      "erence": 3637,
      "lessness": 3638,
      "ĠThat": 3639,
      "Ġprejud": 3640,
      "Ġplacid": 3641,
      "Ġreplace": 3642,
      "Ġknows": 3643,
      "Ġpreserve": 3644,
      "Ġgrand": 3645,
      "Ġclot": 3646,
      "ancing": 3647,
      "Ġpride": 3648,
      "Ġrecess": 3649,
      "Ġincidents": 3650,
      "Ġrested": 3651,
      "Ġearli": 3652,
      "Ġdepend": 3653,
      "Ġcommand": 3654,
      "Ġconfused": 3655,
      "Ġguess": 3656,
      "Ġguard": 3657,
      "Ġguide": 3658,
      "ĠJur": 3659,
      "Ġaccept": 3660,
      "Ġhumanity": 3661,
      "Ġexcl": 3662,
      "Ġcheck": 3663,
      "Ġcheek": 3664,
      "Ġextinct": 3665,
      "Ġvisible": 3666,
      "aces": 3667,
      "Ġhorrors": 3668,
      "Ġdetest": 3669,
      "Ġdestroyer": 3670,
      "Ġintercourse": 3671,
      "Ġregions": 3672,
      "ĠĠĠĠččĊ": 3673,
      "Ġsubs": 3674,
      "Ġglorious": 3675,
      "Ġdecla": 3676,
      "Ġutmost": 3677,
      "Ġwrit": 3678,
      "Ġwriting": 3679,
      "Ġcursed": 3680,
      "ributed": 3681,
      "Ġphrase": 3682,
      "Ġadditional": 3683,
      "Ġbounds": 3684,
      "Ġstreets": 3685,
      "Ġfiendish": 3686,
      "izon": 3687,
      "ksome": 3688,
      "Ġentering": 3689,
      "duced": 3690,
      "Ġadvant": 3691,
      "ibility": 3692,
      "Ġtremble": 3693,
      "Ġlanded": 3694,
      "Ġoppress": 3695,
      "Ġoppressed": 3696,
      "Ġrequire": 3697,
      "Ġdeadly": 3698,
      "Ġdirection": 3699,
      "Ġirksome": 3700,
      "Ġinteresting": 3701,
      "Ġdistribution": 3702,
      "Ġlessons": 3703,
      "Ġgeneral": 3704,
      "Ġgenerally": 3705,
      "Ġviolently": 3706,
      "Ġplayed": 3707,
      "Ġemployment": 3708,
      "Ġespeci": 3709,
      "Ġhorizon": 3710,
      "Ġhearing": 3711,
      "Ġagreed": 3712,
      "Ġabhorrence": 3713,
      "Ġprepare": 3714,
      "Ġjudges": 3715,
      "Ġdelirium": 3716,
      "Ġconviction": 3717,
      "Ġdisposition": 3718,
      "Ġtemp": 3719,
      "Ġbarbar": 3720,
      "Ġproduce": 3721,
      "Ġabsent": 3722,
      "Ġavail": 3723,
      "Ġtransp": 3724,
      "Ġoccurred": 3725,
      "Ġblessed": 3726,
      "Ġdangerous": 3727,
      "Ġinquir": 3728,
      "Ġmistaken": 3729,
      "Ġconfessed": 3730,
      "Ġregarded": 3731,
      "Ġconducted": 3732,
      "grat": 3733,
      "Ġinjustice": 3734,
      "Ġexamined": 3735,
      "Ġjoined": 3736,
      "Ġentreated": 3737,
      "Ġtrembling": 3738,
      "Ġastonishment": 3739,
      "Ġraise": 3740,
      "Ġarranging": 3741,
      "Ġimmediately": 3742,
      "Ġaccompany": 3743,
      "Ġquestions": 3744,
      "Ġdisturb": 3745,
      "Ġpretty": 3746,
      "Ġlower": 3747,
      "Ġexpectation": 3748,
      "Ġtravelled": 3749,
      "Ġconcealed": 3750,
      "Ġforest": 3751,
      "Ġsustain": 3752,
      "Ġtraversed": 3753,
      "Ġembraced": 3754,
      "Ġinflu": 3755,
      "Ġdeclined": 3756,
      "Ġmotionless": 3757,
      "Ġcommunicated": 3758,
      "Ġmedium": 3759,
      "Ġmusic": 3760,
      "Ġsigns": 3761,
      "Ġrenew": 3762,
      "Ġrenewed": 3763,
      "Ġsuspic": 3764,
      "Ġearnestly": 3765,
      "Ġchemist": 3766,
      "Ġchemical": 3767,
      "Ġelevated": 3768,
      "Ġpeasants": 3769,
      "Ġwelcome": 3770,
      "Ġalteration": 3771,
      "Ġalarmed": 3772,
      "Ġattracted": 3773,
      "Ġparticularly": 3774,
      "Ġauthor": 3775,
      "ĠSeveral": 3776,
      "Ġfacts": 3777,
      "Ġmockery": 3778,
      "Ġpenetrate": 3779,
      "Ġneighbourhood": 3780,
      "Ġmultitude": 3781,
      "Ġharmless": 3782,
      "Ġdissipate": 3783,
      "Ġapprehen": 3784,
      "Ġamusement": 3785,
      "Ġpreceding": 3786,
      "Ġsurvive": 3787,
      "Ġinterrupted": 3788,
      "Ġavoid": 3789,
      "Ġwickedness": 3790,
      "Ġgenius": 3791,
      "Ġexhausted": 3792,
      "Ġexercise": 3793,
      "Ġmajestic": 3794,
      "Ġmilk": 3795,
      "Ġschool": 3796,
      "Ġcoward": 3797,
      "Ġcredit": 3798,
      "Ġlaugh": 3799,
      "Ġecstasy": 3800,
      "Ġsacrif": 3801,
      "ĠLeghorn": 3802,
      "Ġgradually": 3803,
      "ĠRemember": 3804,
      "Ġopportunity": 3805,
      "Ġproperty": 3806,
      "Ġnorthern": 3807,
      "Ġhundred": 3808,
      "Ġeloqu": 3809,
      "Ġmethod": 3810,
      "Ġnotwithstanding": 3811,
      "Ġexquisite": 3812,
      "ĠAugust": 3813,
      "ĠSeptember": 3814,
      "Ġchosen": 3815,
      "ĠCornelius": 3816,
      "!âĢĻ": 3817,
      "),": 3818,
      ",_": 3819,
      "Al": 3820,
      "EM": 3821,
      "Felix": 3822,
      "IN": 3823,
      "OR": 3824,
      "Project": 3825,
      "Wh": 3826,
      "be": 3827,
      "bly": 3828,
      "bod": 3829,
      "fl": 3830,
      "fast": 3831,
      "ford": 3832,
      "gg": 3833,
      "iated": 3834,
      "look": 3835,
      "nel": 3836,
      "pre": 3837,
      "pla": 3838,
      "place": 3839,
      "rit": 3840,
      "ran": 3841,
      "rain": 3842,
      "rist": 3843,
      "sper": 3844,
      "ts": 3845,
      "upt": 3846,
      "xford": 3847,
      "zy": 3848,
      "Ġ7": 3849,
      "Ġ9": 3850,
      "Ġver": 3851,
      "Ġrom": 3852,
      "Ġting": 3853,
      "Ġties": 3854,
      "Ġtree": 3855,
      "Ġtreas": 3856,
      "Ġaval": 3857,
      "Ġauth": 3858,
      "inate": 3859,
      "Ġwed": 3860,
      "Ġwra": 3861,
      "Ġmach": 3862,
      "Ġmaking": 3863,
      "Ġmurm": 3864,
      "Ġom": 3865,
      "Ġsl": 3866,
      "Ġsal": 3867,
      "Ġsource": 3868,
      "erter": 3869,
      "atched": 3870,
      "athered": 3871,
      "ouble": 3872,
      "Ġbal": 3873,
      "Ġburd": 3874,
      "Ġbanished": 3875,
      "Ġfill": 3876,
      "Ġfour": 3877,
      "Ġfast": 3878,
      "ĠInd": 3879,
      "Ġho": 3880,
      "Ġhar": 3881,
      "Ġcut": 3882,
      "Ġcher": 3883,
      "Ġcel": 3884,
      "Ġcost": 3885,
      "Ġcra": 3886,
      "isc": 3887,
      "isure": 3888,
      "Ġdar": 3889,
      "Ġdressed": 3890,
      "Ġdarted": 3891,
      "Ġdying": 3892,
      "Ġdangers": 3893,
      "Ġtore": 3894,
      "esc": 3895,
      "ese": 3896,
      "Ġpat": 3897,
      "Ġpist": 3898,
      "Ġpile": 3899,
      "Ġpains": 3900,
      "Ġpause": 3901,
      "Ġpoured": 3902,
      "orable": 3903,
      "Ġthin": 3904,
      "Ġthro": 3905,
      "Ġina": 3906,
      "Ġinsu": 3907,
      "ashing": 3908,
      "arse": 3909,
      "Ġnumber": 3910,
      "Ġline": 3911,
      "Ġlicense": 3912,
      "Ġlakes": 3913,
      "Ġbew": 3914,
      "Ġbeach": 3915,
      "Ġbelow": 3916,
      "Ġrela": 3917,
      "Ġreceiving": 3918,
      "Ġrejo": 3919,
      "Ġhes": 3920,
      "âĢľ": 3921,
      "Ġwhither": 3922,
      "ots": 3923,
      "oted": 3924,
      "oting": 3925,
      "sect": 3926,
      "Ġmech": 3927,
      "Ġga": 3928,
      "Ġgn": 3929,
      "Ġgall": 3930,
      "Ġgates": 3931,
      "Ġgigantic": 3932,
      "Ġgathered": 3933,
      "vert": 3934,
      "Ġug": 3935,
      "irons": 3936,
      "road": 3937,
      "Ġdeb": 3938,
      "Ġdeem": 3939,
      "rive": 3940,
      "Ġassemb": 3941,
      "pping": 3942,
      "abled": 3943,
      "Ġstar": 3944,
      "Ġstay": 3945,
      "Ġstates": 3946,
      "Ġexch": 3947,
      "Ġexile": 3948,
      "Ġexult": 3949,
      "adise": 3950,
      "amoun": 3951,
      "liance": 3952,
      "Ġshr": 3953,
      "Ġshow": 3954,
      "Ġshare": 3955,
      "Ġshattered": 3956,
      "ilar": 3957,
      "Ġsevere": 3958,
      "ularly": 3959,
      "estial": 3960,
      "alling": 3961,
      "allel": 3962,
      "ĠAh": 3963,
      "Ġdisaster": 3964,
      "ardon": 3965,
      "que": 3966,
      "Ġrad": 3967,
      "Ġrust": 3968,
      "Ġrun": 3969,
      "Ġrang": 3970,
      "Ġrug": 3971,
      "Ġrash": 3972,
      "Ġuns": 3973,
      "Ġuneas": 3974,
      "Ġunpar": 3975,
      "ĠSav": 3976,
      "ouses": 3977,
      "Ġspo": 3978,
      "Ġspect": 3979,
      "Ġspared": 3980,
      "Ġspec": 3981,
      "Ġsave": 3982,
      "Ġworm": 3983,
      "Ġworth": 3984,
      "Ġworthy": 3985,
      "ĠWerter": 3986,
      "ustri": 3987,
      "umn": 3988,
      "umerable": 3989,
      "Ġkissed": 3990,
      "Ġapplied": 3991,
      "Ġappalling": 3992,
      "Ġcho": 3993,
      "Ġchim": 3994,
      "ols": 3995,
      "Ġdesir": 3996,
      "Ġdesires": 3997,
      "using": 3998,
      "ffin": 3999,
      "Ġintentions": 4000,
      "Ġimage": 4001,
      "Ġmischief": 4002,
      "ĠEx": 4003,
      "Ġtruly": 4004,
      "Ġens": 4005,
      "Ġenabled": 4006,
      "cible": 4007,
      "ĠGree": 4008,
      "ĠGerm": 4009,
      "ĠPoor": 4010,
      "ĠPresently": 4011,
      "Ġcompos": 4012,
      "Ġcomposed": 4013,
      "istribut": 4014,
      "Ġsomeone": 4015,
      "Ġsomewhat": 4016,
      "Ġknelt": 4017,
      "Ġaband": 4018,
      "irer": 4019,
      "Ġendued": 4020,
      "Ġcontain": 4021,
      "Ġcontempt": 4022,
      "ĠHere": 4023,
      "Ġaccidents": 4024,
      "Ġobst": 4025,
      "aunt": 4026,
      "Ġcoffin": 4027,
      "Ġattent": 4028,
      "rawn": 4029,
      "ĠOxford": 4030,
      "Ġfac": 4031,
      "Ġresign": 4032,
      "Ġreserved": 4033,
      "Ġthence": 4034,
      "lessly": 4035,
      "Ġcreating": 4036,
      "Ġimpr": 4037,
      "Ġimper": 4038,
      "Ġimpulse": 4039,
      "Ġrepe": 4040,
      "Ġrepent": 4041,
      "Ġdestined": 4042,
      "Ġgrate": 4043,
      "Ġgrass": 4044,
      "Ġpoison": 4045,
      "Ġnights": 4046,
      "Ġminds": 4047,
      "Ġclos": 4048,
      "Ġmonst": 4049,
      "Ġformat": 4050,
      "Ġformerly": 4051,
      "anche": 4052,
      "Ġeverlast": 4053,
      "Ġrecur": 4054,
      "Ġrecomm": 4055,
      "Ġincred": 4056,
      "Ġincident": 4057,
      "Ġincrease": 4058,
      "angel": 4059,
      "Ġparts": 4060,
      "Ġblast": 4061,
      "ignant": 4062,
      "ĠNO": 4063,
      "ĠNow": 4064,
      "ĠNature": 4065,
      "Ġcommon": 4066,
      "Ġinfin": 4067,
      "Ġchildhood": 4068,
      "Ġextent": 4069,
      "Ġvisions": 4070,
      "Ġcontinual": 4071,
      "acle": 4072,
      "rences": 4073,
      "Ġhorrid": 4074,
      "Ġlighted": 4075,
      "Ġdetested": 4076,
      "Ġsupported": 4077,
      "Ġwindows": 4078,
      "Ġtorn": 4079,
      "Ġinterf": 4080,
      "Ġjoys": 4081,
      "ĠRe": 4082,
      "Ġinnumerable": 4083,
      "Ġcompany": 4084,
      "licted": 4085,
      "Ġglim": 4086,
      "Ġglance": 4087,
      "Ġturning": 4088,
      "Ġdecided": 4089,
      "Ġdeeper": 4090,
      "Ġwonders": 4091,
      "Ġpowerful": 4092,
      "Ġrelation": 4093,
      "Ġrelations": 4094,
      "Ġtwenty": 4095,
      "Ġopin": 4096,
      "Ġstudied": 4097,
      "These": 4098,
      "ructed": 4099,
      "Ġaction": 4100,
      "Ġactive": 4101,
      "Ġassure": 4102,
      "Ġassumed": 4103,
      "Ġillum": 4104,
      "Ġaddress": 4105,
      "formation": 4106,
      "Ġboundary": 4107,
      "Ġleisure": 4108,
      "Ġcalc": 4109,
      "icial": 4110,
      "Ġfreely": 4111,
      "Ġremainder": 4112,
      "Ġsympathised": 4113,
      "ĠFrance": 4114,
      "Ġprotected": 4115,
      "Ġanger": 4116,
      "Ġconsideration": 4117,
      "ĠStr": 4118,
      "Ġbrothers": 4119,
      "Ġsuffering": 4120,
      "Ġwarmed": 4121,
      "Ġmode": 4122,
      "Ġswallowed": 4123,
      "Ġsights": 4124,
      "Ġlanguages": 4125,
      "Ġfortitude": 4126,
      "Ġfortnight": 4127,
      "Ġprofound": 4128,
      "Ġcottages": 4129,
      "ĠAlps": 4130,
      "Ġdreaded": 4131,
      "Ġsetting": 4132,
      "Ġengage": 4133,
      "Ġirres": 4134,
      "Ġhastily": 4135,
      "Ġpainful": 4136,
      "Ġinterested": 4137,
      "they": 4138,
      "Ġnecessity": 4139,
      "Ġdistribute": 4140,
      "Ġdistributed": 4141,
      "Ġdifference": 4142,
      "Ġinsurm": 4143,
      "Ġgenerous": 4144,
      "Ġviewed": 4145,
      "Ġrapt": 4146,
      "xture": 4147,
      "Ġmotives": 4148,
      "Ġbroke": 4149,
      "Ġcertainty": 4150,
      "Ġseize": 4151,
      "Ġpermit": 4152,
      "ĠOnce": 4153,
      "Ġtortures": 4154,
      "Ġsubjects": 4155,
      "Ġ20": 4156,
      "Ġservants": 4157,
      "Ġunderstanding": 4158,
      "Ġrivers": 4159,
      "Ġignom": 4160,
      "Ġelement": 4161,
      "Ġdelayed": 4162,
      "Ġdearer": 4163,
      "Ġshores": 4164,
      "Ġsummits": 4165,
      "mnip": 4166,
      "Ġbarri": 4167,
      "Ġeagerness": 4168,
      "Ġimmense": 4169,
      "Ġsickness": 4170,
      "Ġsickened": 4171,
      "Ġunfold": 4172,
      "Ġoccurrences": 4173,
      "Ġsecrets": 4174,
      "Ġtalk": 4175,
      "Ġtalked": 4176,
      "Ġthreatened": 4177,
      "Ġinquired": 4178,
      "ashion": 4179,
      "Ġmeeting": 4180,
      "ĠBegone": 4181,
      "Ġencour": 4182,
      "Ġafforded": 4183,
      "Ġcommencement": 4184,
      "Ġsituated": 4185,
      "Ġequal": 4186,
      "Ġexertions": 4187,
      "Ġconsented": 4188,
      "ENT": 4189,
      "Ġnarration": 4190,
      "Ġdeserts": 4191,
      "Ġprofessors": 4192,
      "Ġbenefact": 4193,
      "Ġguiltless": 4194,
      "Ġfeverish": 4195,
      "Ġexplain": 4196,
      "Ġexplained": 4197,
      "Ġobtaining": 4198,
      "Ġtenderly": 4199,
      "Ġbirds": 4200,
      "Ġcares": 4201,
      "Ġcauses": 4202,
      "Ġhabit": 4203,
      "Ġhabitation": 4204,
      "Ġsteep": 4205,
      "ĠChrist": 4206,
      "ĠChamoun": 4207,
      "Ġcontented": 4208,
      "Ġlistening": 4209,
      "Ġtraveller": 4210,
      "Ġdrawing": 4211,
      "Ġsustained": 4212,
      "Ġagreeable": 4213,
      "Ġconfirm": 4214,
      "Ġembark": 4215,
      "Ġwreck": 4216,
      "Ġmutual": 4217,
      "Ġmusc": 4218,
      "Ġslave": 4219,
      "Ġbreath": 4220,
      "Ġdrops": 4221,
      "Ġshuddered": 4222,
      "Ġunwilling": 4223,
      "Ġtormented": 4224,
      "Ġconveyed": 4225,
      "Ġmidnight": 4226,
      "Ġdomestic": 4227,
      "Ġpeasant": 4228,
      "Ġwelcomed": 4229,
      "Ġdisplaying": 4230,
      "Ġflowers": 4231,
      "Ġmournful": 4232,
      "Ġoverwhelmed": 4233,
      "cription": 4234,
      "Ġseries": 4235,
      "Ġdriven": 4236,
      "Ġgreen": 4237,
      "Ġgroans": 4238,
      "ulses": 4239,
      "Ġchiefly": 4240,
      "Ġcontrast": 4241,
      "Ġloathing": 4242,
      "Ġloathsome": 4243,
      "Ġphysical": 4244,
      "Ġbreakfast": 4245,
      "Ġhigher": 4246,
      "Ġlecture": 4247,
      "Ġdeliverer": 4248,
      "Ġsoothed": 4249,
      "ĠShall": 4250,
      "Ġconclusion": 4251,
      "Ġcollecting": 4252,
      "Ġrevolved": 4253,
      "Ġluxur": 4254,
      "Ġstruggled": 4255,
      "Ġtouched": 4256,
      "Ġtaste": 4257,
      "Ġnervous": 4258,
      "Ġfemale": 4259,
      "Ġrambles": 4260,
      "Ġunex": 4261,
      "Ġapparition": 4262,
      "Ġliberty": 4263,
      "Ġleague": 4264,
      "Ġphilosophers": 4265,
      "Ġimprovement": 4266,
      "Ġfrequently": 4267,
      "Ġorigin": 4268,
      "Ġglacier": 4269,
      "Ġpronounced": 4270,
      "Ġpeculiarly": 4271,
      "duction": 4272,
      "Ġtreatment": 4273,
      "Ġaugment": 4274,
      "Ġfingers": 4275,
      "Ġfilthy": 4276,
      "Ġwhisp": 4277,
      "Ġusual": 4278,
      "Ġforbid": 4279,
      "Ġenvirons": 4280,
      "Ġcomplex": 4281,
      "Ġhardships": 4282,
      "Ġleaning": 4283,
      "veloped": 4284,
      "ĠScotland": 4285,
      "Ġesteem": 4286,
      "Ġbleak": 4287,
      "Ġdungeon": 4288,
      "Ġhaunted": 4289,
      "ĠTwo": 4290,
      "Ġcomprehend": 4291,
      "Ġcompletion": 4292,
      "Ġattachment": 4293,
      "Ġclothes": 4294,
      "ĠJura": 4295,
      "Ġexclam": 4296,
      "Ġinquiries": 4297,
      "Ġeloquence": 4298,
      "Alas": 4299,
      "places": 4300,
      "Ġavalanche": 4301,
      "Ġauthors": 4302,
      "Ġwedding": 4303,
      "Ġcelestial": 4304,
      "Ġdarling": 4305,
      "Ġmechan": 4306,
      "alleled": 4307,
      "Ġrugged": 4308,
      "Ġunparalleled": 4309,
      "Ġeverlasting": 4310,
      "Ġinsurmountable": 4311,
      "ĠChamounix": 4312,
      "AT": 4313,
      "Are": 4314,
      "BER": 4315,
      "CH": 4316,
      "Come": 4317,
      "ECT": 4318,
      "He": 4319,
      "IL": 4320,
      "If": 4321,
      "JECT": 4322,
      "NY": 4323,
      "No": 4324,
      "ON": 4325,
      "One": 4326,
      "She": 4327,
      "TH": 4328,
      "What": 4329,
      "Your": 4330,
      "_.": 4331,
      "ais": 4332,
      "br": 4333,
      "but": 4334,
      "bbed": 4335,
      "cast": 4336,
      "din": 4337,
      "dain": 4338,
      "dious": 4339,
      "fty": 4340,
      "gn": 4341,
      "gment": 4342,
      "house": 4343,
      "iac": 4344,
      "just": 4345,
      "lter": 4346,
      "lum": 4347,
      "lance": 4348,
      "line": 4349,
      "lict": 4350,
      "liter": 4351,
      "mate": 4352,
      "mount": 4353,
      "now": 4354,
      "ox": 4355,
      "oll": 4356,
      "pit": 4357,
      "pro": 4358,
      "side": 4359,
      "shine": 4360,
      "te": 4361,
      "uption": 4362,
      "vation": 4363,
      "wh": 4364,
      "wor": 4365,
      "you": 4366,
      "ylum": 4367,
      "za": 4368,
      "Ġ6": 4369,
      "Ġ8": 4370,
      "Ġ[": 4371,
      "Ġgh": 4372,
      "Ġze": 4373,
      "Ġ**": 4374,
      "Ġtre": 4375,
      "Ġted": 4376,
      "Ġtour": 4377,
      "Ġtread": 4378,
      "Ġach": 4379,
      "Ġaud": 4380,
      "here": 4381,
      "hest": 4382,
      "inated": 4383,
      "rect": 4384,
      "reland": 4385,
      "Ġwaf": 4386,
      "Ġming": 4387,
      "Ġmould": 4388,
      "Ġmorrow": 4389,
      "Ġmass": 4390,
      "Ġtheory": 4391,
      "Ġowed": 4392,
      "Ġomnip": 4393,
      "Ġodious": 4394,
      "Ġsen": 4395,
      "Ġsong": 4396,
      "Ġsqual": 4397,
      "nding": 4398,
      "erg": 4399,
      "eric": 4400,
      "athed": 4401,
      "ators": 4402,
      "atisf": 4403,
      "atics": 4404,
      "outh": 4405,
      "Ġbid": 4406,
      "Ġbud": 4407,
      "Ġbade": 4408,
      "Ġbott": 4409,
      "Ġbread": 4410,
      "Ġbond": 4411,
      "Ġborn": 4412,
      "Ġflight": 4413,
      "Ġfills": 4414,
      "Ġfishing": 4415,
      "Ġfashion": 4416,
      "ĠIreland": 4417,
      "Ġcent": 4418,
      "Ġcorr": 4419,
      "Ġcross": 4420,
      "Ġcaves": 4421,
      "isen": 4422,
      "ises": 4423,
      "isher": 4424,
      "itar": 4425,
      "itory": 4426,
      "Ġdust": 4427,
      "Ġdili": 4428,
      "Ġdignity": 4429,
      "Ġdashing": 4430,
      "Ġdrawn": 4431,
      "Ġtot": 4432,
      "esh": 4433,
      "esp": 4434,
      "Ġpan": 4435,
      "Ġpil": 4436,
      "Ġpure": 4437,
      "Ġpage": 4438,
      "Ġpra": 4439,
      "Ġpainted": 4440,
      "Ġpack": 4441,
      "Ġpier": 4442,
      "Ġpaying": 4443,
      "Ġinan": 4444,
      "any": 4445,
      "anch": 4446,
      "asions": 4447,
      "asburgh": 4448,
      "Ġnour": 4449,
      "Ġnav": 4450,
      "Ġlies": 4451,
      "Ġloss": 4452,
      "Ġlull": 4453,
      "Ġlaughter": 4454,
      "Ġeld": 4455,
      "Ġeight": 4456,
      "Ġeluded": 4457,
      "oman": 4458,
      "ommon": 4459,
      "Ġhailed": 4460,
      "icity": 4461,
      "icious": 4462,
      "icult": 4463,
      "icating": 4464,
      "Ġbeast": 4465,
      "Ġrese": 4466,
      "Ġrent": 4467,
      "utions": 4468,
      "Ġheight": 4469,
      "stem": 4470,
      "vell": 4471,
      "ental": 4472,
      "entiful": 4473,
      "Ġye": 4474,
      "Ġyellow": 4475,
      "otence": 4476,
      "Ġwaste": 4477,
      "urable": 4478,
      "urbed": 4479,
      "urope": 4480,
      "image": 4481,
      "Ġgod": 4482,
      "Ġgiving": 4483,
      "Ġonline": 4484,
      "irm": 4485,
      "alty": 4486,
      "alÃª": 4487,
      "alais": 4488,
      "etite": 4489,
      "Ġdeli": 4490,
      "Ġdeceived": 4491,
      "Ġdelic": 4492,
      "Ġdemon": 4493,
      "Ġaside": 4494,
      "Ġasylum": 4495,
      "Ġwebs": 4496,
      "Ġnotes": 4497,
      "Ġconverse": 4498,
      "Ġant": 4499,
      "ational": 4500,
      "ĠâĢ¢": 4501,
      "Ġsto": 4502,
      "Ġsting": 4503,
      "Ġstir": 4504,
      "Ġstore": 4505,
      "Ġstart": 4506,
      "Ġstup": 4507,
      "Ġstole": 4508,
      "Ġstones": 4509,
      "Ġstatus": 4510,
      "Ġfees": 4511,
      "Ġsugg": 4512,
      "adame": 4513,
      "ille": 4514,
      "Ġvow": 4515,
      "Ġvig": 4516,
      "Ġvac": 4517,
      "Ġvener": 4518,
      "Ġvines": 4519,
      "Ġvanish": 4520,
      "iform": 4521,
      "Ġshake": 4522,
      "Ġshade": 4523,
      "Ġshown": 4524,
      "Ġate": 4525,
      "ilation": 4526,
      "Ġseat": 4527,
      "Ġseated": 4528,
      "Ġsepar": 4529,
      "ouring": 4530,
      "ources": 4531,
      "Ġherb": 4532,
      "Ġsoothing": 4533,
      "ulations": 4534,
      "esty": 4535,
      "ĠThen": 4536,
      "ĠANY": 4537,
      "Ġdisdain": 4538,
      "quainted": 4539,
      "resent": 4540,
      "reshed": 4541,
      "ounded": 4542,
      "Ġrout": 4543,
      "Ġunrem": 4544,
      "Ġunac": 4545,
      "Ġunjust": 4546,
      "Ġuniform": 4547,
      "ĠSalÃª": 4548,
      "ously": 4549,
      "ending": 4550,
      "endicul": 4551,
      "Ġyours": 4552,
      "Ġsport": 4553,
      "Ġspite": 4554,
      "Ġspread": 4555,
      "Ġsav": 4556,
      "Ġsailed": 4557,
      "ĠHave": 4558,
      "ĠHav": 4559,
      "Ġworse": 4560,
      "ĠMay": 4561,
      "ĠMadame": 4562,
      "Ġorder": 4563,
      "ĠWAR": 4564,
      "Ġproject": 4565,
      "els": 4566,
      "Ġperil": 4567,
      "Ġappetite": 4568,
      "Ġchill": 4569,
      "oles": 4570,
      "olute": 4571,
      "Ġdescent": 4572,
      "Ġdeserted": 4573,
      "uss": 4574,
      "usions": 4575,
      "ffectual": 4576,
      "Ġages": 4577,
      "aging": 4578,
      "agged": 4579,
      "Ġwillingly": 4580,
      "apable": 4581,
      "ĠEdin": 4582,
      "ĠEurope": 4583,
      "Ġshelter": 4584,
      "astic": 4585,
      "Ġtry": 4586,
      "Ġensuing": 4587,
      "ĠCont": 4588,
      "Ġtheirs": 4589,
      "Ġjew": 4590,
      "cile": 4591,
      "Ġnoon": 4592,
      "ĠFarewell": 4593,
      "ĠGreat": 4594,
      "ĠGood": 4595,
      "ĠGener": 4596,
      "ĠGUT": 4597,
      "Ġremind": 4598,
      "Ġremove": 4599,
      "bert": 4600,
      "cket": 4601,
      "ĠPro": 4602,
      "Ġexposed": 4603,
      "Ġcomput": 4604,
      "Ġcompliance": 4605,
      "Ġentic": 4606,
      "Ġendowed": 4607,
      "Ġretire": 4608,
      "Ġcontained": 4609,
      "Ġaccent": 4610,
      "Ġobliter": 4611,
      "Ġmiserably": 4612,
      "Ġourselves": 4613,
      "Ġthanked": 4614,
      "Ġquite": 4615,
      "rying": 4616,
      "Ġconsisted": 4617,
      "âĢĶâĢĿ": 4618,
      "âĢĶâĢľ": 4619,
      "Ġcoarse": 4620,
      "Ġoverlook": 4621,
      "Ġattack": 4622,
      "Ġattentions": 4623,
      "Ġattributed": 4624,
      "race": 4625,
      "Ġowner": 4626,
      "Ġscener": 4627,
      "Ġscattered": 4628,
      "Ġscope": 4629,
      "Ġscream": 4630,
      "Ġcountries": 4631,
      "Ġhappier": 4632,
      "Ġresided": 4633,
      "Ġresource": 4634,
      "Ġinduce": 4635,
      "Ġindivid": 4636,
      "Ġrefreshed": 4637,
      "ĠLaven": 4638,
      "Ġdistress": 4639,
      "Ġdistorted": 4640,
      "Ġstruct": 4641,
      "Ġstrangers": 4642,
      "Ġdisclaim": 4643,
      "ildered": 4644,
      "lored": 4645,
      "Ġplaces": 4646,
      "Ġreply": 4647,
      "Ġrepro": 4648,
      "Ġrepresent": 4649,
      "Ġknowing": 4650,
      "Ġgrant": 4651,
      "Ġroy": 4652,
      "Ġroots": 4653,
      "Ġbring": 4654,
      "Ġbranch": 4655,
      "Ġpole": 4656,
      "Ġpoets": 4657,
      "Ġpocket": 4658,
      "Ġhearts": 4659,
      "Ġcling": 4660,
      "Ġclung": 4661,
      "Ġclasp": 4662,
      "ittance": 4663,
      "Ġloveliness": 4664,
      "ĠDid": 4665,
      "ĠDesp": 4666,
      "otten": 4667,
      "ival": 4668,
      "Ġincon": 4669,
      "Ġincluded": 4670,
      "Ġincapable": 4671,
      "Ġ11": 4672,
      "Ġ12": 4673,
      "Ġ18": 4674,
      "Ġ19": 4675,
      "Ġrestless": 4676,
      "Ġrestrained": 4677,
      "Ġdepressed": 4678,
      "Ġdepended": 4679,
      "Ġparty": 4680,
      "Ġblow": 4681,
      "Ġlofty": 4682,
      "Ġinstig": 4683,
      "ĠNay": 4684,
      "Ġplentiful": 4685,
      "lease": 4686,
      "Ġconfide": 4687,
      "Ġconfidence": 4688,
      "Ġconflict": 4689,
      "airs": 4690,
      "Ġguided": 4691,
      "Ġguitar": 4692,
      "Ġsurmount": 4693,
      "Ġcrush": 4694,
      "Ġcruel": 4695,
      "Ġthrow": 4696,
      "Ġsooner": 4697,
      "Ġinfancy": 4698,
      "Ġsunshine": 4699,
      "Ġchildish": 4700,
      "aution": 4701,
      "Ġwatched": 4702,
      "Ġvisits": 4703,
      "Ġappearances": 4704,
      "ĠInformation": 4705,
      "acy": 4706,
      "Ġlightning": 4707,
      "Ġsmiled": 4708,
      "Ġdestroying": 4709,
      "Ġvoices": 4710,
      "Ġpursuits": 4711,
      "Ġtorrent": 4712,
      "Ġbelieves": 4713,
      "Ġseems": 4714,
      "Ġseemingly": 4715,
      "Ġdifficult": 4716,
      "Ġregion": 4717,
      "Ġflowed": 4718,
      "Ġflesh": 4719,
      "Ġdelights": 4720,
      "Ġdelightful": 4721,
      "Ġimages": 4722,
      "Ġimagine": 4723,
      "Ġpromont": 4724,
      "Ġresolving": 4725,
      "Ġsystem": 4726,
      "Ġdecay": 4727,
      "Ġdecide": 4728,
      "ceptible": 4729,
      "Ġconcluded": 4730,
      "Ġwrote": 4731,
      "Ġcurs": 4732,
      "Ġjournal": 4733,
      "interest": 4734,
      "Ġmoral": 4735,
      "Ġobserve": 4736,
      "Ġpleasures": 4737,
      "They": 4738,
      "Ġacted": 4739,
      "Ġactions": 4740,
      "ĠArve": 4741,
      "Ġreading": 4742,
      "Ġleg": 4743,
      "acels": 4744,
      "Ġcalmed": 4745,
      "Ġbetr": 4746,
      "Ġacquire": 4747,
      "Ġheavenly": 4748,
      "Ġstrangely": 4749,
      "ontro": 4750,
      "Ġoffer": 4751,
      "Ġvariety": 4752,
      "Ġadvent": 4753,
      "Ġadvancing": 4754,
      "Ġcopying": 4755,
      "Ġsympathies": 4756,
      "Ġsympathise": 4757,
      "Ġwalks": 4758,
      "Ġgoodness": 4759,
      "ĠAgain": 4760,
      "Ġprotection": 4761,
      "action": 4762,
      "Ġsnatched": 4763,
      "Ġlands": 4764,
      "iculate": 4765,
      "Ġbodily": 4766,
      "Ġtowns": 4767,
      "Ġrequires": 4768,
      "rossed": 4769,
      "Ġanimals": 4770,
      "ĠStill": 4771,
      "Ġmoderate": 4772,
      "Ġswift": 4773,
      "ompassed": 4774,
      "Ġproviding": 4775,
      "Ġpersons": 4776,
      "Ġcolle": 4777,
      "Ġcollection": 4778,
      "cribed": 4779,
      "ounce": 4780,
      "Ġcaptain": 4781,
      "Ġmarried": 4782,
      "Ġsorrows": 4783,
      "Ġadmire": 4784,
      "Ġwomen": 4785,
      "Ġpaths": 4786,
      "Ġuncommon": 4787,
      "Ġunhallowed": 4788,
      "Ġevils": 4789,
      "Ġhighly": 4790,
      "Ġuseful": 4791,
      "Ġvirtuous": 4792,
      "Ġparched": 4793,
      "Ġreasoning": 4794,
      "Ġprepar": 4795,
      "Ġpreparing": 4796,
      "Ġtortured": 4797,
      "iveness": 4798,
      "Ġservice": 4799,
      "Ġtravel": 4800,
      "Ġtravels": 4801,
      "Ġjudgment": 4802,
      "Ġprevail": 4803,
      "Ġunhappiness": 4804,
      "Ġsentiment": 4805,
      "Ġsentiments": 4806,
      "ccessible": 4807,
      "Ġdevote": 4808,
      "Ġtempted": 4809,
      "Ġbarred": 4810,
      "Ġeager": 4811,
      "Ġextremely": 4812,
      "Ġvictims": 4813,
      "Ġeditions": 4814,
      "Ġmatter": 4815,
      "Ġcastles": 4816,
      "Ġputting": 4817,
      "Ġrevive": 4818,
      "Ġvoyages": 4819,
      "Ġsprang": 4820,
      "Ġtransitory": 4821,
      "Ġclouded": 4822,
      "Ġcloudless": 4823,
      "Ġrecollect": 4824,
      "Ġtalent": 4825,
      "Ġblessing": 4826,
      "Ġthreats": 4827,
      "Ġsupernatural": 4828,
      "Ġencompassed": 4829,
      "Ġinformed": 4830,
      "grimage": 4831,
      "Ġkept": 4832,
      "Ġwait": 4833,
      "Ġfinish": 4834,
      "Ġineffectual": 4835,
      "Ġinjury": 4836,
      "Ġequally": 4837,
      "Ġgazing": 4838,
      "Ġexamine": 4839,
      "Ġvainly": 4840,
      "ĠMrs": 4841,
      "Ġentreaties": 4842,
      "Ġconsumed": 4843,
      "Ġattending": 4844,
      "Ġrespite": 4845,
      "Ġrespected": 4846,
      "Ġundertake": 4847,
      "ĠArchangel": 4848,
      "ENBER": 4849,
      "Ġpictures": 4850,
      "Ġnarrow": 4851,
      "Ġnarrative": 4852,
      "Ġweeping": 4853,
      "Ġarranged": 4854,
      "ĠParacels": 4855,
      "Ġcheerfulness": 4856,
      "Ġdemanded": 4857,
      "where": 4858,
      "Ġmourning": 4859,
      "Ġsadness": 4860,
      "Ġdrink": 4861,
      "Ġpaper": 4862,
      "Ġleaving": 4863,
      "Ġrenders": 4864,
      "Ġvolume": 4865,
      "Ġfirmness": 4866,
      "Ġcondemn": 4867,
      "Ġignorance": 4868,
      "Ġsolemnity": 4869,
      "Ġassuredly": 4870,
      "Ġenthusiastic": 4871,
      "Ġtenderness": 4872,
      "Ġsimpl": 4873,
      "Ġholder": 4874,
      "Ġhabits": 4875,
      "Ġhelpless": 4876,
      "ĠSwiss": 4877,
      "Ġcontemplate": 4878,
      "Ġgrasped": 4879,
      "Ġveins": 4880,
      "Ġhateful": 4881,
      "Ġnursed": 4882,
      "Ġperpendicul": 4883,
      "Ġdecline": 4884,
      "Ġwreak": 4885,
      "Ġmasters": 4886,
      "Ġslavery": 4887,
      "Ġbreathed": 4888,
      "Ġposted": 4889,
      "Ġconjecture": 4890,
      "Ġsuspense": 4891,
      "Ġprobable": 4892,
      "Ġprobably": 4893,
      "Ġassistance": 4894,
      "Ġdisplayed": 4895,
      "Ġdespondency": 4896,
      "Ġoverwhelming": 4897,
      "ITY": 4898,
      "RANT": 4899,
      "Ġautumn": 4900,
      "Ġserious": 4901,
      "Ġdrive": 4902,
      "Ġinspire": 4903,
      "Ġbelonged": 4904,
      "Ġbelonging": 4905,
      "Ġheroes": 4906,
      "Ġgroan": 4907,
      "Ġforgotten": 4908,
      "ulsive": 4909,
      "Ġravings": 4910,
      "Ġintellect": 4911,
      "Ġcontrary": 4912,
      "Ġpreyed": 4913,
      "Ġneighbouring": 4914,
      "Ġblooming": 4915,
      "Ġhighest": 4916,
      "Ġheavy": 4917,
      "Ġdelivered": 4918,
      "Ġascended": 4919,
      "Ġsoothe": 4920,
      "ĠAmeric": 4921,
      "Ġislands": 4922,
      "Ġplainly": 4923,
      "Ġperpetual": 4924,
      "Ġluxury": 4925,
      "Ġstruggle": 4926,
      "phere": 4927,
      "Ġbefall": 4928,
      "Ġbefitting": 4929,
      "Ġreverence": 4930,
      "Ġrelig": 4931,
      "Ġrelief": 4932,
      "Ġimpatient": 4933,
      "Ġselfishness": 4934,
      "Ġdawned": 4935,
      "Ġvolunteers": 4936,
      "Ġgovernment": 4937,
      "Ġcultivation": 4938,
      "Ġerr": 4939,
      "Ġoperations": 4940,
      "Ġpalp": 4941,
      "Ġcombined": 4942,
      "Ġagonies": 4943,
      "ĠBelrive": 4944,
      "ĠPROJECT": 4945,
      "ĠOften": 4946,
      "Ġconsummation": 4947,
      "Ġconsequences": 4948,
      "eeling": 4949,
      "Ġwalls": 4950,
      "Ġmixture": 4951,
      "Ġfuneral": 4952,
      "onstant": 4953,
      "Ġcustom": 4954,
      "esterday": 4955,
      "Ġpunishment": 4956,
      "Ġconjure": 4957,
      "Ġspurned": 4958,
      "Ġimbued": 4959,
      "Ġexpedition": 4960,
      "Ġaccumulated": 4961,
      "Ġbecoming": 4962,
      "Ġextinction": 4963,
      "Ġadvantage": 4964,
      "Ġrequirements": 4965,
      "Ġespecially": 4966,
      "Ġtempest": 4967,
      "Ġtransported": 4968,
      "gratitude": 4969,
      "Ġinfluence": 4970,
      "Ġsuspicion": 4971,
      "Ġchemistry": 4972,
      "Ġapprehension": 4973,
      "Ġcowardice": 4974,
      "Ġsacrifice": 4975,
      "Ġverd": 4976,
      "Ġromantic": 4977,
      "Ġwrapped": 4978,
      "Ġburden": 4979,
      "Ġthroat": 4980,
      "Ġinaccessible": 4981,
      "Ġbewildered": 4982,
      "Ġhesitated": 4983,
      "Ġdeemed": 4984,
      "Ġexchanged": 4985,
      "Ġrustic": 4986,
      "ĠSaville": 4987,
      "Ġcomposure": 4988,
      "Ġinfinite": 4989,
      "Ġglimm": 4990,
      "ĠStrasburgh": 4991,
      "Ġrapture": 4992,
      "Ġignominy": 4993,
      "Ġbarrier": 4994,
      "ĠChristian": 4995,
      "Ġunexp": 4996,
      "Ġaugmented": 4997,
      "Ġwhispered": 4998,
      "iacal": 4999,
      "Ġzeal": 5000,
      "Ġ***": 5001,
      "Ġtedious": 5002,
      "Ġwafted": 5003,
      "Ġsenseless": 5004,
      "Ġsqualid": 5005,
      "Ġbottom": 5006,
      "Ġpilgrimage": 5007,
      "Ġinanimate": 5008,
      "Ġresearch": 5009,
      "Ġdeliver": 5010,
      "Ġwebsite": 5011,
      "Ġvenerable": 5012,
      "Ġunacquainted": 5013,
      "ĠSalÃªve": 5014,
      "ĠWARRANT": 5015,
      "ĠEdinburgh": 5016,
      "ĠGUTENBER": 5017,
      "Ġscenery": 5018,
      "Ġindividual": 5019,
      "ĠLavenza": 5020,
      "Ġstructure": 5021,
      "Ġpromontory": 5022,
      "Ġswiftness": 5023,
      "ĠParacelsus": 5024,
      "ĠGUTENBERG": 5025,
      "!)": 5026,
      "00": 5027,
      "01": 5028,
      "AB": 5029,
      "AG": 5030,
      "AL": 5031,
      "AM": 5032,
      "An": 5033,
      "By": 5034,
      "CE": 5035,
      "CI": 5036,
      "Dear": 5037,
      "Elizabeth": 5038,
      "For": 5039,
      "Farewell": 5040,
      "Geneva": 5041,
      "GRE": 5042,
      "Have": 5043,
      "IB": 5044,
      "In": 5045,
      "IES": 5046,
      "LA": 5047,
      "May": 5048,
      "MIT": 5049,
      "Sorrow": 5050,
      "TR": 5051,
      "VE": 5052,
      "Why": 5053,
      "Yet": 5054,
      "acc": 5055,
      "aci": 5056,
      "aired": 5057,
      "bre": 5058,
      "bing": 5059,
      "cl": 5060,
      "cut": 5061,
      "ches": 5062,
      "de": 5063,
      "do": 5064,
      "dom": 5065,
      "dle": 5066,
      "dated": 5067,
      "eer": 5068,
      "ees": 5069,
      "eked": 5070,
      "egr": 5071,
      "felt": 5072,
      "fellow": 5073,
      "gre": 5074,
      "gar": 5075,
      "hold": 5076,
      "haust": 5077,
      "hilation": 5078,
      "iation": 5079,
      "iour": 5080,
      "iend": 5081,
      "iel": 5082,
      "iance": 5083,
      "ihilation": 5084,
      "ler": 5085,
      "lut": 5086,
      "lose": 5087,
      "me": 5088,
      "mad": 5089,
      "mos": 5090,
      "mber": 5091,
      "mony": 5092,
      "mency": 5093,
      "nus": 5094,
      "nance": 5095,
      "ped": 5096,
      "por": 5097,
      "pret": 5098,
      "press": 5099,
      "pires": 5100,
      "palais": 5101,
      "ration": 5102,
      "rable": 5103,
      "rough": 5104,
      "rict": 5105,
      "rged": 5106,
      "raged": 5107,
      "raded": 5108,
      "tled": 5109,
      "ule": 5110,
      "uable": 5111,
      "vid": 5112,
      "voc": 5113,
      "woman": 5114,
      "Ġ-": 5115,
      "Ġic": 5116,
      "Ġtest": 5117,
      "Ġtall": 5118,
      "Ġtea": 5119,
      "Ġtone": 5120,
      "Ġtrif": 5121,
      "Ġtempt": 5122,
      "Ġtones": 5123,
      "Ġaim": 5124,
      "Ġalight": 5125,
      "Ġalike": 5126,
      "heus": 5127,
      "hetic": 5128,
      "iner": 5129,
      "inent": 5130,
      "inqu": 5131,
      "inished": 5132,
      "inently": 5133,
      "incible": 5134,
      "rec": 5135,
      "Ġwon": 5136,
      "Ġwar": 5137,
      "Ġwore": 5138,
      "Ġwip": 5139,
      "Ġwants": 5140,
      "Ġmate": 5141,
      "Ġow": 5142,
      "Ġoak": 5143,
      "Ġowe": 5144,
      "Ġsor": 5145,
      "Ġsang": 5146,
      "Ġscient": 5147,
      "erce": 5148,
      "erred": 5149,
      "eration": 5150,
      "erous": 5151,
      "atig": 5152,
      "atlock": 5153,
      "oup": 5154,
      "Ġben": 5155,
      "Ġbas": 5156,
      "Ġbri": 5157,
      "Ġbol": 5158,
      "Ġbought": 5159,
      "Ġbitt": 5160,
      "Ġbask": 5161,
      "Ġbanish": 5162,
      "enet": 5163,
      "enched": 5164,
      "Ġfart": 5165,
      "Ġfish": 5166,
      "Ġfurn": 5167,
      "Ġfare": 5168,
      "Ġfired": 5169,
      "Ġfarm": 5170,
      "Ġfren": 5171,
      "Ġfitted": 5172,
      "Ġfits": 5173,
      "Ġfaint": 5174,
      "Ġfarewell": 5175,
      "Ġfisher": 5176,
      "ĠIN": 5177,
      "Ġhors": 5178,
      "onc": 5179,
      "onations": 5180,
      "Ġcla": 5181,
      "Ġcand": 5182,
      "Ġcere": 5183,
      "Ġcup": 5184,
      "Ġcorn": 5185,
      "Ġcool": 5186,
      "Ġcrossed": 5187,
      "isit": 5188,
      "isition": 5189,
      "isible": 5190,
      "itable": 5191,
      "Ġdated": 5192,
      "Ġdue": 5193,
      "Ġdict": 5194,
      "Ġdried": 5195,
      "Ġdamp": 5196,
      "Ġdiver": 5197,
      "Ġtop": 5198,
      "Ġtow": 5199,
      "Ġtoward": 5200,
      "Ġtomb": 5201,
      "Ġtools": 5202,
      "Ġpit": 5203,
      "Ġpop": 5204,
      "Ġpie": 5205,
      "Ġpail": 5206,
      "Ġpines": 5207,
      "Ġpulse": 5208,
      "Ġpardon": 5209,
      "Ġpittance": 5210,
      "ories": 5211,
      "ords": 5212,
      "Ġthine": 5213,
      "Ġinher": 5214,
      "Ġingratitude": 5215,
      "anity": 5216,
      "aniel": 5217,
      "asing": 5218,
      "asper": 5219,
      "arol": 5220,
      "arious": 5221,
      "inged": 5222,
      "Ġnum": 5223,
      "Ġnove": 5224,
      "Ġniece": 5225,
      "Ġling": 5226,
      "Ġlately": 5227,
      "Ġlines": 5228,
      "Ġlying": 5229,
      "Ġel": 5230,
      "Ġease": 5231,
      "omy": 5232,
      "icate": 5233,
      "Ġbend": 5234,
      "Ġbeam": 5235,
      "Ġbeli": 5236,
      "Ġbearing": 5237,
      "Ġrely": 5238,
      "Ġrelied": 5239,
      "Ġreception": 5240,
      "Ġreduced": 5241,
      "utable": 5242,
      "Ġheath": 5243,
      "lege": 5244,
      "leep": 5245,
      "stance": 5246,
      "Ġwhale": 5247,
      "Ġwhirl": 5248,
      "ceit": 5249,
      "cepted": 5250,
      "Ġyesterday": 5251,
      "otected": 5252,
      "sec": 5253,
      "set": 5254,
      "Ġwasted": 5255,
      "Ġmere": 5256,
      "Ġmeal": 5257,
      "urate": 5258,
      "urance": 5259,
      "uries": 5260,
      "Ġgal": 5261,
      "Ġget": 5262,
      "Ġgush": 5263,
      "Ġgift": 5264,
      "vering": 5265,
      "verity": 5266,
      "Ġwithd": 5267,
      "irited": 5268,
      "aled": 5269,
      "eters": 5270,
      "etry": 5271,
      "etheus": 5272,
      "Ġforci": 5273,
      "idently": 5274,
      "rove": 5275,
      "rophe": 5276,
      "Ġdew": 5277,
      "Ġdeject": 5278,
      "Ġascent": 5279,
      "Ġconqu": 5280,
      "Ġconven": 5281,
      "Ġconval": 5282,
      "Ġconversed": 5283,
      "Ġanew": 5284,
      "Ġantic": 5285,
      "ĠTears": 5286,
      "pport": 5287,
      "ĠâĢĶ": 5288,
      "ables": 5289,
      "Ġsty": 5290,
      "Ġstand": 5291,
      "Ġstanding": 5292,
      "Ġstock": 5293,
      "Ġstrove": 5294,
      "Ġsup": 5295,
      "Ġsure": 5296,
      "Ġexact": 5297,
      "Ġexempt": 5298,
      "Ġexasper": 5299,
      "ading": 5300,
      "aments": 5301,
      "illa": 5302,
      "Ġviv": 5303,
      "Ġvivid": 5304,
      "Ġvicious": 5305,
      "rometheus": 5306,
      "Ġshun": 5307,
      "Ġshine": 5308,
      "Ġshared": 5309,
      "Ġatmos": 5310,
      "ils": 5311,
      "ilt": 5312,
      "ilan": 5313,
      "iling": 5314,
      "iless": 5315,
      "ilities": 5316,
      "ching": 5317,
      "Ġselected": 5318,
      "Ġseverity": 5319,
      "thly": 5320,
      "Ġhers": 5321,
      "ulted": 5322,
      "ĠAGRE": 5323,
      "Ġissu": 5324,
      "Ġdisk": 5325,
      "Ġdisper": 5326,
      "Ġdiscip": 5327,
      "ards": 5328,
      "arded": 5329,
      "quate": 5330,
      "quiet": 5331,
      "Ġrich": 5332,
      "Ġrul": 5333,
      "Ġrough": 5334,
      "Ġrays": 5335,
      "Ġraf": 5336,
      "Ġrisen": 5337,
      "earn": 5338,
      "earthly": 5339,
      "Ġung": 5340,
      "Ġunus": 5341,
      "Ġunsu": 5342,
      "Ġunpr": 5343,
      "Ġunming": 5344,
      "Ġunnatural": 5345,
      "Ġunearthly": 5346,
      "ĠSud": 5347,
      "ĠServ": 5348,
      "ĠSix": 5349,
      "ements": 5350,
      "Ġspl": 5351,
      "Ġspare": 5352,
      "Ġspace": 5353,
      "Ġsacri": 5354,
      "ĠHear": 5355,
      "Ġworn": 5356,
      "Ġworst": 5357,
      "Ġmanif": 5358,
      "ĠMag": 5359,
      "ĠMost": 5360,
      "ĠMod": 5361,
      "ĠMarch": 5362,
      "ĠMatlock": 5363,
      "ĠMilan": 5364,
      "Ġalle": 5365,
      "Ġallude": 5366,
      "Ġord": 5367,
      "Ġorg": 5368,
      "Ġorph": 5369,
      "ĠWas": 5370,
      "ĠWest": 5371,
      "Ġwholly": 5372,
      "Ġprocess": 5373,
      "Ġprosper": 5374,
      "Ġcoming": 5375,
      "antly": 5376,
      "uman": 5377,
      "umption": 5378,
      "Ġking": 5379,
      "Ġchang": 5380,
      "Ġchained": 5381,
      "Ġchink": 5382,
      "Ġchains": 5383,
      "Ġchival": 5384,
      "olunt": 5385,
      "olerable": 5386,
      "Ġdesol": 5387,
      "Ġdeserve": 5388,
      "Ġdeserving": 5389,
      "Ġintr": 5390,
      "Ġintim": 5391,
      "Ġintention": 5392,
      "Ġintimate": 5393,
      "Ġintegr": 5394,
      "Ġintolerable": 5395,
      "Ġaged": 5396,
      "agers": 5397,
      "opy": 5398,
      "Ġneat": 5399,
      "oses": 5400,
      "Ġimitate": 5401,
      "aphy": 5402,
      "Ġmission": 5403,
      "ĠEv": 5404,
      "ĠEver": 5405,
      "Ġarch": 5406,
      "astly": 5407,
      "astrophe": 5408,
      "ortions": 5409,
      "Ġtrack": 5410,
      "Ġtrouble": 5411,
      "Ġenable": 5412,
      "Ġenlight": 5413,
      "Ġenveloped": 5414,
      "ĠCreat": 5415,
      "ĠCumber": 5416,
      "ĠCursed": 5417,
      "ĠCarol": 5418,
      "ĠFortun": 5419,
      "ĠFOR": 5420,
      "unged": 5421,
      "ĠGre": 5422,
      "Ġremote": 5423,
      "bers": 5424,
      "ĠPlain": 5425,
      "ĠPeters": 5426,
      "ĠPrometheus": 5427,
      "Ġexper": 5428,
      "igence": 5429,
      "igators": 5430,
      "eping": 5431,
      "Ġcompl": 5432,
      "Ġcompens": 5433,
      "thern": 5434,
      "ists": 5435,
      "isten": 5436,
      "istered": 5437,
      "istible": 5438,
      "isturbed": 5439,
      "Ġentity": 5440,
      "Ġentert": 5441,
      "Ġabroad": 5442,
      "Ġlibr": 5443,
      "Ġlivid": 5444,
      "ptoms": 5445,
      "Ġcontrived": 5446,
      "akened": 5447,
      "Ġobey": 5448,
      "Ġquar": 5449,
      "Ġquitting": 5450,
      "ĠYes": 5451,
      "Ġadored": 5452,
      "Ġoverfl": 5453,
      "rait": 5454,
      "Ġscorn": 5455,
      "Ġscaff": 5456,
      "Ġfaith": 5457,
      "Ġindef": 5458,
      "Ġindeli": 5459,
      "Ġeverything": 5460,
      "Ġrefined": 5461,
      "Ġrefrain": 5462,
      "ĠThose": 5463,
      "ĠThrough": 5464,
      "ĠLi": 5465,
      "ĠLy": 5466,
      "ĠLife": 5467,
      "ĠLearn": 5468,
      "Ġstrang": 5469,
      "Ġdiscont": 5470,
      "Ġdiscons": 5471,
      "Ġdiscourse": 5472,
      "Ġdisclose": 5473,
      "Ġprecious": 5474,
      "Ġimport": 5475,
      "Ġimpulses": 5476,
      "Ġimpenet": 5477,
      "Ġreport": 5478,
      "Ġrepug": 5479,
      "Ġreplete": 5480,
      "Ġrepublic": 5481,
      "Ġrepulsive": 5482,
      "ĠIts": 5483,
      "ĠItal": 5484,
      "Ġpresents": 5485,
      "Ġpresumption": 5486,
      "Ġwhatso": 5487,
      "Ġgrin": 5488,
      "Ġgrow": 5489,
      "Ġgroup": 5490,
      "Ġrob": 5491,
      "Ġroll": 5492,
      "Ġroared": 5493,
      "Ġbrink": 5494,
      "Ġfoundations": 5495,
      "Ġreturns": 5496,
      "Ġaffect": 5497,
      "Ġaffected": 5498,
      "Ġaffirm": 5499,
      "Ġpointed": 5500,
      "Ġpoignant": 5501,
      "Ġclings": 5502,
      "Ġclue": 5503,
      "Ġclass": 5504,
      "ĠDear": 5505,
      "ĠDIS": 5506,
      "ĠDAM": 5507,
      "ĠDaniel": 5508,
      "Ġhopeless": 5509,
      "ivity": 5510,
      "ivative": 5511,
      "Ġprint": 5512,
      "Ġrecent": 5513,
      "Ġrecomp": 5514,
      "Ġrecalled": 5515,
      "ensity": 5516,
      "ensive": 5517,
      "Ġincomp": 5518,
      "Ġ13": 5519,
      "Ġ15": 5520,
      "Ġawa": 5521,
      "Ġawful": 5522,
      "Ġawake": 5523,
      "Ġawakened": 5524,
      "Ġdreary": 5525,
      "Ġrests": 5526,
      "Ġdepra": 5527,
      "Ġdeposition": 5528,
      "Ġdeaths": 5529,
      "Ġpartic": 5530,
      "Ġblot": 5531,
      "Ġblows": 5532,
      "Ġbliss": 5533,
      "Ġload": 5534,
      "Ġlock": 5535,
      "Ġloathed": 5536,
      "Ġinstruction": 5537,
      "ĠNot": 5538,
      "ĠNight": 5539,
      "ĠNever": 5540,
      "Ġfoe": 5541,
      "Ġfold": 5542,
      "Ġuser": 5543,
      "Ġuses": 5544,
      "Ġcommit": 5545,
      "uctu": 5546,
      "Ġplains": 5547,
      "Ġplunge": 5548,
      "Ġplunged": 5549,
      "Ġevidently": 5550,
      "Ġkindly": 5551,
      "Ġconfusion": 5552,
      "Ġpossibly": 5553,
      "ples": 5554,
      "inkled": 5555,
      "Ġplease": 5556,
      "Ġdearly": 5557,
      "Ġemaci": 5558,
      "Ġembers": 5559,
      "Ġsurp": 5560,
      "Ġcrown": 5561,
      "Ġsensibly": 5562,
      "Ġsensitive": 5563,
      "Ġsensibility": 5564,
      "Ġinflicted": 5565,
      "Ġfearing": 5566,
      "Ġexcite": 5567,
      "lands": 5568,
      "Ġchecked": 5569,
      "Ġcheese": 5570,
      "ĠWell": 5571,
      "Ġvision": 5572,
      "Ġbeauties": 5573,
      "acher": 5574,
      "ipated": 5575,
      "ipment": 5576,
      "version": 5577,
      "Ġoutward": 5578,
      "Ġoutcast": 5579,
      "Ġoutside": 5580,
      "Ġsmiling": 5581,
      "Ġsupply": 5582,
      "Ġsuppress": 5583,
      "Ġolder": 5584,
      "Ġvoid": 5585,
      "Ġpursuing": 5586,
      "Ġwindings": 5587,
      "Ġsouthern": 5588,
      "Ġtorments": 5589,
      "Ġinterch": 5590,
      "Ġinterpre": 5591,
      "Ġjoyous": 5592,
      "spring": 5593,
      "ĠRE": 5594,
      "ĠRuss": 5595,
      "Ġdespairing": 5596,
      "Ġsatiated": 5597,
      "Ġdiffused": 5598,
      "Ġregularly": 5599,
      "Ġflour": 5600,
      "Ġflash": 5601,
      "Ġfluctu": 5602,
      "Ġsubdu": 5603,
      "Ġsubstance": 5604,
      "Ġimaginations": 5605,
      "Ġglut": 5606,
      "Ġglitter": 5607,
      "Ġoccupy": 5608,
      "Ġdarkened": 5609,
      "Ġdecreas": 5610,
      "Ġutility": 5611,
      "Ġlaborious": 5612,
      "Ġsecluded": 5613,
      "denly": 5614,
      "ĠUp": 5615,
      "Ġidle": 5616,
      "Ġident": 5617,
      "Ġcrev": 5618,
      "Ġdegrad": 5619,
      "Ġdegraded": 5620,
      "Ġwrinkled": 5621,
      "Ġcurrent": 5622,
      "Ġrelates": 5623,
      "Ġrelinqu": 5624,
      "Ġstudent": 5625,
      "Ġobserving": 5626,
      "Ġactivity": 5627,
      "Ġdevouring": 5628,
      "Ġassass": 5629,
      "Ġassisted": 5630,
      "Ġready": 5631,
      "Ġbounded": 5632,
      "Ġboundless": 5633,
      "Ġstreet": 5634,
      "Ġsymptoms": 5635,
      "Ġcharged": 5636,
      "Ġacquired": 5637,
      "Ġcareer": 5638,
      "Ġcarefully": 5639,
      "Ġcarelessness": 5640,
      "Ġofficial": 5641,
      "Ġoffspring": 5642,
      "Ġadvance": 5643,
      "Ġsilver": 5644,
      "Ġgrie": 5645,
      "Ġairs": 5646,
      "erial": 5647,
      "ertaining": 5648,
      "Ġfully": 5649,
      "Ġlearning": 5650,
      "Ġconsiderably": 5651,
      "Ġbodies": 5652,
      "Ġthousands": 5653,
      "ĠHowever": 5654,
      "elled": 5655,
      "Ġswept": 5656,
      "Ġboast": 5657,
      "Ġlanguor": 5658,
      "getables": 5659,
      "Ġcapacity": 5660,
      "ĠAlbert": 5661,
      "Ġrecovery": 5662,
      "Ġrecogn": 5663,
      "Ġdreadfully": 5664,
      "Ġwandering": 5665,
      "Ġminister": 5666,
      "Ġmarvell": 5667,
      "Ġmarrying": 5668,
      "Ġadmired": 5669,
      "Ġrefused": 5670,
      "Ġdiscovering": 5671,
      "Ġsleeping": 5672,
      "Ġsweetness": 5673,
      "Ġuncertain": 5674,
      "Ġuncouth": 5675,
      "Ġuncontro": 5676,
      "Ġutterance": 5677,
      "Ġcalmer": 5678,
      "Ġdoubted": 5679,
      "Ġaccounts": 5680,
      "Ġpurposes": 5681,
      "Ġsnows": 5682,
      "Ġinsanity": 5683,
      "Ġyouthful": 5684,
      "Ġgenerations": 5685,
      "Ġviews": 5686,
      "Ġsufficiently": 5687,
      "Ġplaying": 5688,
      "Ġwatchful": 5689,
      "Ġmotions": 5690,
      "Ġclean": 5691,
      "Ġcleared": 5692,
      "Ġclearly": 5693,
      "Ġmadman": 5694,
      "Ġservices": 5695,
      "Ġlimb": 5696,
      "Ġlimitation": 5697,
      "Ġjudged": 5698,
      "Ġpassionate": 5699,
      "Ġwilds": 5700,
      "Ġwildest": 5701,
      "Ġwildness": 5702,
      "Ġcarry": 5703,
      "Ġcarriage": 5704,
      "orns": 5705,
      "Ġelements": 5706,
      "Ġperforming": 5707,
      "Ġcheerfully": 5708,
      "Ġdevotion": 5709,
      "cape": 5710,
      "Ġbarren": 5711,
      "Ġvessels": 5712,
      "Ġrule": 5713,
      "Ġruined": 5714,
      "Ġimmutable": 5715,
      "Ġabsor": 5716,
      "Ġabsolute": 5717,
      "Ġedge": 5718,
      "Ġmathem": 5719,
      "Ġsickening": 5720,
      "Ġrevived": 5721,
      "Ġdemean": 5722,
      "Ġoccurrence": 5723,
      "Ġrecollected": 5724,
      "Ġinquirer": 5725,
      "Ġmeaning": 5726,
      "Ġexecute": 5727,
      "Ġexecuted": 5728,
      "Ġvillagers": 5729,
      "Ġunfortunately": 5730,
      "Ġmists": 5731,
      "Ġmistress": 5732,
      "Ġaffording": 5733,
      "Ġregarding": 5734,
      "Ġsituations": 5735,
      "Ġbreast": 5736,
      "Ġbreaking": 5737,
      "Ġdonate": 5738,
      "Ġinjure": 5739,
      "Ġinvincible": 5740,
      "Ġinvisible": 5741,
      "Ġequipment": 5742,
      "Ġexamining": 5743,
      "Ġjoint": 5744,
      "Ġcomplying": 5745,
      "Ġconsume": 5746,
      "Ġattendant": 5747,
      "Ġbestowing": 5748,
      "Ġadmirable": 5749,
      "Ġastonished": 5750,
      "rers": 5751,
      "Ġmerc": 5752,
      "Ġmerits": 5753,
      "Ġbusied": 5754,
      "Ġbusiness": 5755,
      "Ġarrange": 5756,
      "Ġfrightened": 5757,
      "Ġaccording": 5758,
      "Ġprofession": 5759,
      "Ġwanton": 5760,
      "Ġburned": 5761,
      "Ġdrun": 5762,
      "Ġpapa": 5763,
      "Ġexploded": 5764,
      "Ġfirmly": 5765,
      "Ġgratification": 5766,
      "Ġbeholding": 5767,
      "parable": 5768,
      "Ġpretend": 5769,
      "Ġpretence": 5770,
      "Ġgrace": 5771,
      "Ġforgetfulness": 5772,
      "Ġconstructed": 5773,
      "ĠTHIS": 5774,
      "Ġrocks": 5775,
      "Ġapproaching": 5776,
      "forth": 5777,
      "Ġveil": 5778,
      "Ġsingular": 5779,
      "Ġburnt": 5780,
      "Ġfeeble": 5781,
      "Ġtrait": 5782,
      "Ġattempts": 5783,
      "Ġfailing": 5784,
      "Ġfailure": 5785,
      "Ġinflict": 5786,
      "Ġinflamed": 5787,
      "Ġexcessive": 5788,
      "Ġcommunication": 5789,
      "Ġparagraphs": 5790,
      "Ġwisdom": 5791,
      "Ġslightest": 5792,
      "Ġbreathe": 5793,
      "Ġdrop": 5794,
      "Ġdrove": 5795,
      "Ġpostp": 5796,
      "alties": 5797,
      "Ġshades": 5798,
      "Ġseasons": 5799,
      "Ġunwor": 5800,
      "Ġprobability": 5801,
      "Ġdistinction": 5802,
      "Ġrecorded": 5803,
      "Ġrecording": 5804,
      "Ġearnestness": 5805,
      "Ġdevils": 5806,
      "Ġcharacters": 5807,
      "Ġmidst": 5808,
      "Ġmiddle": 5809,
      "Ġmildness": 5810,
      "Ġfrozen": 5811,
      "Ġcloak": 5812,
      "Ġhairs": 5813,
      "Ġrelieved": 5814,
      "Ġdeformed": 5815,
      "Ġangelic": 5816,
      "Ġremarkably": 5817,
      "Ġparticulars": 5818,
      "Ġdesponding": 5819,
      "Ġemotion": 5820,
      "Ġdetails": 5821,
      "Ġexhibit": 5822,
      "Ġdisappointed": 5823,
      "Ġwounds": 5824,
      "Ġslowly": 5825,
      "Ġderive": 5826,
      "Ġderivative": 5827,
      "Ġinspired": 5828,
      "Ġundisturbed": 5829,
      "Ġforgive": 5830,
      "Ġdefence": 5831,
      "Ġweakness": 5832,
      "Ġconnection": 5833,
      "Ġconsec": 5834,
      "Ġvalue": 5835,
      "Ġvalued": 5836,
      "Ġvaluable": 5837,
      "Ġshapes": 5838,
      "Ġsoftened": 5839,
      "Ġravine": 5840,
      "ĠMany": 5841,
      "Ġapplicable": 5842,
      "Ġintellectual": 5843,
      "Ġintelligence": 5844,
      "ĠEverything": 5845,
      "Ġindulged": 5846,
      "Ġindulgence": 5847,
      "Ġfulfilment": 5848,
      "Ġpenetrated": 5849,
      "ogy": 5850,
      "Ġfurther": 5851,
      "Ġfurious": 5852,
      "Ġlectures": 5853,
      "Ġheavily": 5854,
      "Ġprecaution": 5855,
      "Ġpreceded": 5856,
      "Ġsouthwards": 5857,
      "Ġgladness": 5858,
      "Ġconclusions": 5859,
      "Ġstreams": 5860,
      "Ġefforts": 5861,
      "Ġavoided": 5862,
      "Ġinexorable": 5863,
      "Ġperpetually": 5864,
      "Ġfalsehood": 5865,
      "Ġtastes": 5866,
      "Ġmystery": 5867,
      "Ġmysterious": 5868,
      "Ġnerves": 5869,
      "Ġyielded": 5870,
      "Ġannihilation": 5871,
      "Ġventured": 5872,
      "Ġapparatus": 5873,
      "Ġintroduced": 5874,
      "Ġintroduction": 5875,
      "Ġimpatience": 5876,
      "Ġinstructions": 5877,
      "Ġswelled": 5878,
      "Ġswelling": 5879,
      "Ġleagues": 5880,
      "Ġirreparable": 5881,
      "Ġproportionably": 5882,
      "Ġpreviously": 5883,
      "Ġimprovements": 5884,
      "Ġfrequent": 5885,
      "Ġprincipal": 5886,
      "Ġprincipally": 5887,
      "Ġoriginal": 5888,
      "Ġgovernments": 5889,
      "Ġglaciers": 5890,
      "Ġcultivated": 5891,
      "Ġpeculiar": 5892,
      "Ġfloor": 5893,
      "Ġdeny": 5894,
      "Ġprize": 5895,
      "Ġpayments": 5896,
      "Ġpractical": 5897,
      "Ġlinks": 5898,
      "Ġredistribut": 5899,
      "Ġreveries": 5900,
      "Ġshrieked": 5901,
      "Ġpersecut": 5902,
      "ĠPerth": 5903,
      "ĠLIMIT": 5904,
      "Ġimpression": 5905,
      "ĠNorth": 5906,
      "Ġfixing": 5907,
      "Ġintervals": 5908,
      "Ġwanderings": 5909,
      "Ġfreedom": 5910,
      "Ġshuddering": 5911,
      "Ġtumultuous": 5912,
      "Ġmirac": 5913,
      "Ġbrave": 5914,
      "Ġfervour": 5915,
      "Ġcatastrophe": 5916,
      "Ġcolour": 5917,
      "Ġportrait": 5918,
      "Ġpatience": 5919,
      "Ġmeasure": 5920,
      "Ġgestures": 5921,
      "Ġdefective": 5922,
      "ĠAdam": 5923,
      "Ġunbounded": 5924,
      "Ġsparkled": 5925,
      "Ġenchanting": 5926,
      "Ġaccomplish": 5927,
      "Ġconsciousness": 5928,
      "Ġoverhung": 5929,
      "Ġreplacement": 5930,
      "Ġrecesses": 5931,
      "Ġearlier": 5932,
      "Ġearliest": 5933,
      "Ġdetestation": 5934,
      "Ġdeclare": 5935,
      "Ġdeclared": 5936,
      "Ġoppressive": 5937,
      "Ġbarbarous": 5938,
      "Who": 5939,
      "body": 5940,
      "Ġtreasures": 5941,
      "Ġmachinations": 5942,
      "Ġmurmur": 5943,
      "Ġomitted": 5944,
      "Ġharbour": 5945,
      "Ġcherished": 5946,
      "Ġcracked": 5947,
      "iscovered": 5948,
      "escence": 5949,
      "Ġpistol": 5950,
      "Ġinsupport": 5951,
      "Ġrejoiced": 5952,
      "Ġgaiety": 5953,
      "Ġgnashed": 5954,
      "Ġugly": 5955,
      "Ġassembla": 5956,
      "Ġexultation": 5957,
      "ilarity": 5958,
      "Ġradiant": 5959,
      "Ġrunning": 5960,
      "Ġrashly": 5961,
      "Ġunsatisf": 5962,
      "Ġuneasy": 5963,
      "Ġspoken": 5964,
      "Ġspectre": 5965,
      "ustrious": 5966,
      "Ġchoice": 5967,
      "Ġchimer": 5968,
      "Ġdesirous": 5969,
      "ĠGermany": 5970,
      "Ġabandoned": 5971,
      "Ġattentively": 5972,
      "Ġrepeated": 5973,
      "Ġgrateful": 5974,
      "Ġcloser": 5975,
      "Ġmonstrous": 5976,
      "Ġrecurred": 5977,
      "Ġrecommence": 5978,
      "ĠNOT": 5979,
      "Ġinterfere": 5980,
      "Ġopinion": 5981,
      "Ġirresistible": 5982,
      "Ġbenefactor": 5983,
      "Ġsteeple": 5984,
      "Ġmuscles": 5985,
      "Ġbreathless": 5986,
      "Ġforbidden": 5987,
      "Ġexclamation": 5988,
      "Ġmechanism": 5989,
      "ILITY": 5990,
      "while": 5991,
      "work": 5992,
      "Ġghastly": 5993,
      "Ġtreacher": 5994,
      "Ġachie": 5995,
      "Ġmingled": 5996,
      "Ġomnipotent": 5997,
      "Ġsongs": 5998,
      "Ġbonds": 5999,
      "Ġcorruption": 6000,
      "Ġdiligence": 6001,
      "Ġtotally": 6002,
      "Ġnourishment": 6003,
      "Ġnavigators": 6004,
      "Ġgodlike": 6005,
      "Ġdemoniacal": 6006,
      "Ġstopped": 6007,
      "Ġstirred": 6008,
      "Ġstupendous": 6009,
      "Ġseparated": 6010,
      "Ġunremitting": 6011,
      "Ġsavage": 6012,
      "ĠHaving": 6013,
      "Ġprojects": 6014,
      "Ġjewels": 6015,
      "ĠGeneral": 6016,
      "Ġobliterated": 6017,
      "Ġrepresentations": 6018,
      "Ġroyalties": 6019,
      "Ġinstigated": 6020,
      "Ġcursory": 6021,
      "Ġlandscape": 6022,
      "Ġcollege": 6023,
      "Ġpicturesque": 6024,
      "Ġperpendicular": 6025,
      "ĠAmerica": 6026,
      "Ġbefallen": 6027,
      "Ġreligion": 6028,
      "Sorrows": 6029,
      "lutarch": 6030,
      "Ġicy": 6031,
      "Ġtemptation": 6032,
      "Ġsorry": 6033,
      "Ġscientific": 6034,
      "atigable": 6035,
      "Ġbitterest": 6036,
      "Ġbasket": 6037,
      "Ġfarther": 6038,
      "Ġfrenzy": 6039,
      "Ġfishermen": 6040,
      "Ġhorses": 6041,
      "Ġceremony": 6042,
      "Ġcorner": 6043,
      "Ġpieces": 6044,
      "Ġnumerous": 6045,
      "Ġnovelt": 6046,
      "Ġbelief": 6047,
      "Ġwhirlw": 6048,
      "Ġforcibly": 6049,
      "Ġconvalescence": 6050,
      "Ġexactly": 6051,
      "Ġvivacity": 6052,
      "Ġshunned": 6053,
      "Ġatmosphere": 6054,
      "Ġdispersed": 6055,
      "Ġdisciple": 6056,
      "Ġraft": 6057,
      "Ġunusual": 6058,
      "Ġunprotected": 6059,
      "Ġunmingled": 6060,
      "ĠSuddenly": 6061,
      "Ġsacrilege": 6062,
      "ĠMagnus": 6063,
      "ĠModern": 6064,
      "Ġorphan": 6065,
      "Ġchanges": 6066,
      "Ġintegrity": 6067,
      "Ġenlightened": 6068,
      "ĠCumberland": 6069,
      "ĠCaroline": 6070,
      "ĠFortunately": 6071,
      "ĠPlainpalais": 6072,
      "ĠPetersburgh": 6073,
      "Ġentertained": 6074,
      "Ġlibrary": 6075,
      "Ġoverflowed": 6076,
      "Ġscaffold": 6077,
      "Ġindefatigable": 6078,
      "Ġdisconsolate": 6079,
      "Ġimpenetrable": 6080,
      "Ġrepugnance": 6081,
      "Ġwhatsoever": 6082,
      "ĠDAMAG": 6083,
      "Ġincomplete": 6084,
      "Ġemaciated": 6085,
      "Ġsubdued": 6086,
      "Ġglittering": 6087,
      "Ġdegradation": 6088,
      "ĠAlbertus": 6089,
      "Ġmarvellous": 6090,
      "Ġuncontroll": 6091,
      "Ġmathematics": 6092,
      "Ġdemeanour": 6093,
      "Ġpersecutor": 6094,
      "ĠLIMITED": 6095,
      "Ġinsupportable": 6096,
      ",âĢĶ": 6097,
      ".âĢĶ": 6098,
      "41": 6099,
      ":âĢĶ": 6100,
      "Ah": 6101,
      "At": 6102,
      "Ay": 6103,
      "After": 6104,
      "ACH": 6105,
      "BO": 6106,
      "CEN": 6107,
      "Dea": 6108,
      "DER": 6109,
      "Dev": 6110,
      "EU": 6111,
      "Every": 6112,
      "EIN": 6113,
      "ETH": 6114,
      "Good": 6115,
      "God": 6116,
      "Here": 6117,
      "IG": 6118,
      "Is": 6119,
      "IRE": 6120,
      "ION": 6121,
      "IVE": 6122,
      "Justine": 6123,
      "KEN": 6124,
      "LE": 6125,
      "LL": 6126,
      "METH": 6127,
      "Now": 6128,
      "NKEN": 6129,
      "OK": 6130,
      "ONT": 6131,
      "OSE": 6132,
      "ODER": 6133,
      "Par": 6134,
      "Poor": 6135,
      "Plain": 6136,
      "Plutarch": 6137,
      "SS": 6138,
      "ST": 6139,
      "Se": 6140,
      "So": 6141,
      "Such": 6142,
      "Safie": 6143,
      "SCI": 6144,
      "TAR": 6145,
      "ULL": 6146,
      "William": 6147,
      "Yes": 6148,
      "aud": 6149,
      "aced": 6150,
      "after": 6151,
      "by": 6152,
      "bation": 6153,
      "band": 6154,
      "book": 6155,
      "bling": 6156,
      "back": 6157,
      "bey": 6158,
      "brated": 6159,
      "cle": 6160,
      "cher": 6161,
      "cra": 6162,
      "cont": 6163,
      "chem": 6164,
      "don": 6165,
      "dam": 6166,
      "dream": 6167,
      "eo": 6168,
      "ele": 6169,
      "eur": 6170,
      "ext": 6171,
      "equate": 6172,
      "fess": 6173,
      "fection": 6174,
      "fold": 6175,
      "face": 6176,
      "filled": 6177,
      "field": 6178,
      "flow": 6179,
      "gy": 6180,
      "gen": 6181,
      "gated": 6182,
      "good": 6183,
      "gacity": 6184,
      "gular": 6185,
      "hon": 6186,
      "ham": 6187,
      "hall": 6188,
      "hone": 6189,
      "houses": 6190,
      "holes": 6191,
      "ient": 6192,
      "iab": 6193,
      "iate": 6194,
      "ipt": 6195,
      "ians": 6196,
      "ivers": 6197,
      "iature": 6198,
      "iog": 6199,
      "kin": 6200,
      "kney": 6201,
      "lim": 6202,
      "mm": 6203,
      "mo": 6204,
      "mat": 6205,
      "mit": 6206,
      "mor": 6207,
      "mind": 6208,
      "mail": 6209,
      "money": 6210,
      "ny": 6211,
      "ner": 6212,
      "nation": 6213,
      "nter": 6214,
      "nost": 6215,
      "nces": 6216,
      "nerable": 6217,
      "nomy": 6218,
      "ok": 6219,
      "ohe": 6220,
      "oat": 6221,
      "ois": 6222,
      "oir": 6223,
      "och": 6224,
      "off": 6225,
      "ober": 6226,
      "pow": 6227,
      "pet": 6228,
      "pri": 6229,
      "pain": 6230,
      "pher": 6231,
      "phed": 6232,
      "pine": 6233,
      "pare": 6234,
      "pless": 6235,
      "pond": 6236,
      "poch": 6237,
      "rs": 6238,
      "row": 6239,
      "rim": 6240,
      "rust": 6241,
      "rish": 6242,
      "ranc": 6243,
      "rants": 6244,
      "riting": 6245,
      "she": 6246,
      "sight": 6247,
      "sions": 6248,
      "sceptible": 6249,
      "sils": 6250,
      "tured": 6251,
      "uit": 6252,
      "uing": 6253,
      "uge": 6254,
      "uff": 6255,
      "uarded": 6256,
      "uham": 6257,
      "vion": 6258,
      "vest": 6259,
      "vious": 6260,
      "view": 6261,
      "wich": 6262,
      "will": 6263,
      "wood": 6264,
      "why": 6265,
      "welt": 6266,
      "writing": 6267,
      "xir": 6268,
      "yp": 6269,
      "your": 6270,
      "zes": 6271,
      "zing": 6272,
      "zled": 6273,
      "Ã´": 6274,
      "Ġuten": 6275,
      "Ġices": 6276,
      "Ġversion": 6277,
      "Ġtim": 6278,
      "Ġtid": 6279,
      "Ġtill": 6280,
      "Ġtong": 6281,
      "Ġtide": 6282,
      "Ġtapp": 6283,
      "Ġtribut": 6284,
      "Ġtasted": 6285,
      "Ġtakes": 6286,
      "Ġawe": 6287,
      "Ġaided": 6288,
      "Ġaught": 6289,
      "Ġaverse": 6290,
      "Ġavert": 6291,
      "Ġaerial": 6292,
      "Ġakin": 6293,
      "heast": 6294,
      "hearted": 6295,
      "hecked": 6296,
      "inen": 6297,
      "ince": 6298,
      "inter": 6299,
      "inine": 6300,
      "inue": 6301,
      "inement": 6302,
      "inople": 6303,
      "repare": 6304,
      "Ġwest": 6305,
      "Ġwert": 6306,
      "Ġways": 6307,
      "Ġwarr": 6308,
      "Ġmum": 6309,
      "Ġmood": 6310,
      "Ġmak": 6311,
      "Ġmile": 6312,
      "Ġmakes": 6313,
      "Ġmental": 6314,
      "Ġmule": 6315,
      "Ġoh": 6316,
      "Ġoat": 6317,
      "Ġoar": 6318,
      "Ġoars": 6319,
      "Ġsangu": 6320,
      "Ġsix": 6321,
      "Ġsaint": 6322,
      "Ġsources": 6323,
      "eded": 6324,
      "edily": 6325,
      "editer": 6326,
      "educ": 6327,
      "ederal": 6328,
      "edistribut": 6329,
      "erver": 6330,
      "erity": 6331,
      "erne": 6332,
      "erned": 6333,
      "ator": 6334,
      "atan": 6335,
      "atiable": 6336,
      "atives": 6337,
      "ouis": 6338,
      "ourers": 6339,
      "Ġbab": 6340,
      "Ġball": 6341,
      "Ġbind": 6342,
      "Ġblight": 6343,
      "Ġbold": 6344,
      "Ġbaff": 6345,
      "ena": 6346,
      "enance": 6347,
      "Ġfet": 6348,
      "Ġfain": 6349,
      "Ġfif": 6350,
      "Ġfost": 6351,
      "Ġfra": 6352,
      "Ġfert": 6353,
      "Ġfift": 6354,
      "Ġfuel": 6355,
      "Ġfederal": 6356,
      "ĠIND": 6357,
      "ĠImm": 6358,
      "ĠIrish": 6359,
      "Ġhill": 6360,
      "Ġhus": 6361,
      "Ġhunt": 6362,
      "Ġharr": 6363,
      "Ġhushed": 6364,
      "Ġhouses": 6365,
      "Ġhilarity": 6366,
      "Ġhuge": 6367,
      "onous": 6368,
      "Ġcas": 6369,
      "Ġcry": 6370,
      "Ġcord": 6371,
      "Ġcaught": 6372,
      "Ġcell": 6373,
      "Ġcoun": 6374,
      "Ġcraw": 6375,
      "Ġcries": 6376,
      "Ġcele": 6377,
      "isation": 6378,
      "isive": 6379,
      "isions": 6380,
      "iserable": 6381,
      "isitive": 6382,
      "ites": 6383,
      "itle": 6384,
      "ital": 6385,
      "iture": 6386,
      "itous": 6387,
      "itered": 6388,
      "itates": 6389,
      "itical": 6390,
      "itiveness": 6391,
      "Ġdab": 6392,
      "Ġdil": 6393,
      "Ġdus": 6394,
      "Ġdull": 6395,
      "Ġdiz": 6396,
      "Ġdrif": 6397,
      "Ġdaz": 6398,
      "Ġdash": 6399,
      "Ġdashed": 6400,
      "Ġdouble": 6401,
      "Ġdoted": 6402,
      "Ġdoting": 6403,
      "Ġdaunt": 6404,
      "Ġdiab": 6405,
      "Ġdwelt": 6406,
      "Ġtoday": 6407,
      "Ġtoler": 6408,
      "estern": 6409,
      "Ġpa": 6410,
      "Ġped": 6411,
      "Ġpet": 6412,
      "Ġpol": 6413,
      "Ġpang": 6414,
      "Ġphen": 6415,
      "Ġpull": 6416,
      "Ġpace": 6417,
      "Ġpiny": 6418,
      "Ġpool": 6419,
      "Ġpangs": 6420,
      "Ġpiece": 6421,
      "oration": 6422,
      "orous": 6423,
      "orary": 6424,
      "Ġthri": 6425,
      "Ġinart": 6426,
      "Ġinsect": 6427,
      "Ġinaction": 6428,
      "ane": 6429,
      "anse": 6430,
      "aniz": 6431,
      "annel": 6432,
      "anvert": 6433,
      "anilla": 6434,
      "arb": 6435,
      "arings": 6436,
      "aries": 6437,
      "aried": 6438,
      "ingale": 6439,
      "Ġnon": 6440,
      "Ġnic": 6441,
      "Ġnut": 6442,
      "Ġnay": 6443,
      "Ġnought": 6444,
      "Ġnook": 6445,
      "Ġlic": 6446,
      "Ġlust": 6447,
      "Ġlap": 6448,
      "Ġlone": 6449,
      "Ġliter": 6450,
      "Ġlasted": 6451,
      "Ġlashes": 6452,
      "Ġeli": 6453,
      "Ġebook": 6454,
      "Ġepoch": 6455,
      "llen": 6456,
      "lley": 6457,
      "omo": 6458,
      "omas": 6459,
      "omena": 6460,
      "Ġhapless": 6461,
      "icle": 6462,
      "icable": 6463,
      "Ġbears": 6464,
      "Ġren": 6465,
      "Ġrece": 6466,
      "Ġreject": 6467,
      "Ġreign": 6468,
      "Ġreass": 6469,
      "Ġreverse": 6470,
      "Ġrelease": 6471,
      "utation": 6472,
      "utting": 6473,
      "utality": 6474,
      "Ġheare": 6475,
      "lemency": 6476,
      "str": 6477,
      "stand": 6478,
      "stone": 6479,
      "step": 6480,
      "stained": 6481,
      "Ġwhate": 6482,
      "enth": 6483,
      "ented": 6484,
      "ceiv": 6485,
      "otter": 6486,
      "othed": 6487,
      "otonous": 6488,
      "sequ": 6489,
      "seback": 6490,
      "Ġmead": 6491,
      "owy": 6492,
      "urg": 6493,
      "uration": 6494,
      "urch": 6495,
      "urous": 6496,
      "urity": 6497,
      "uracy": 6498,
      "imately": 6499,
      "Ġgun": 6500,
      "Ġgather": 6501,
      "Ġglo": 6502,
      "Ġgently": 6503,
      "Ġgold": 6504,
      "Ġgushed": 6505,
      "Ġgeo": 6506,
      "Ġgarb": 6507,
      "ctions": 6508,
      "ctober": 6509,
      "verance": 6510,
      "Ġwithstand": 6511,
      "Ġult": 6512,
      "iron": 6513,
      "iring": 6514,
      "iration": 6515,
      "alf": 6516,
      "aling": 6517,
      "although": 6518,
      "etary": 6519,
      "Ġfors": 6520,
      "Ġforces": 6521,
      "ids": 6522,
      "idge": 6523,
      "idable": 6524,
      "idity": 6525,
      "rod": 6526,
      "rol": 6527,
      "room": 6528,
      "essantly": 6529,
      "Ġdeer": 6530,
      "Ġdebar": 6531,
      "Ġdeveloped": 6532,
      "Ġdeceit": 6533,
      "riev": 6534,
      "Ġasc": 6535,
      "Ġashes": 6536,
      "Ġascribed": 6537,
      "Ġasleep": 6538,
      "Ġweary": 6539,
      "Ġwelf": 6540,
      "Ġweigh": 6541,
      "ainz": 6542,
      "Ġconci": 6543,
      "Ġconcept": 6544,
      "Ġconster": 6545,
      "Ġcongrat": 6546,
      "Ġanat": 6547,
      "Ġanaly": 6548,
      "ĠTO": 6549,
      "ĠTow": 6550,
      "ĠTurn": 6551,
      "ĠTake": 6552,
      "ĠTerm": 6553,
      "ĠTell": 6554,
      "ppressed": 6555,
      "ppling": 6556,
      "Ġstim": 6557,
      "Ġstation": 6558,
      "Ġstif": 6559,
      "Ġstage": 6560,
      "Ġstag": 6561,
      "Ġstone": 6562,
      "Ġstony": 6563,
      "Ġstayed": 6564,
      "tering": 6565,
      "terable": 6566,
      "Ġfeature": 6567,
      "ĠâĢľ_": 6568,
      "Ġsucc": 6569,
      "Ġsuspect": 6570,
      "Ġsusceptible": 6571,
      "Ġsullen": 6572,
      "ader": 6573,
      "ades": 6574,
      "amble": 6575,
      "ample": 6576,
      "ameless": 6577,
      "amois": 6578,
      "Ġvag": 6579,
      "Ġvowed": 6580,
      "Ġvint": 6581,
      "Ġvices": 6582,
      "liage": 6583,
      "liating": 6584,
      "Ġshame": 6585,
      "Ġshout": 6586,
      "Ġshaken": 6587,
      "Ġshaded": 6588,
      "Ġshiver": 6589,
      "Ġshining": 6590,
      "ilitated": 6591,
      "chamber": 6592,
      "urely": 6593,
      "Ġsex": 6594,
      "Ġsend": 6595,
      "Ġseven": 6596,
      "Ġsending": 6597,
      "thur": 6598,
      "thus": 6599,
      "throw": 6600,
      "ourable": 6601,
      "Ġsock": 6602,
      "Ġsoaring": 6603,
      "Ġsobbed": 6604,
      "ulus": 6605,
      "ulty": 6606,
      "ulating": 6607,
      "ulatory": 6608,
      "ulnerable": 6609,
      "estion": 6610,
      "alls": 6611,
      "ĠAre": 6612,
      "ĠAcc": 6613,
      "ĠAustri": 6614,
      "ĠASCI": 6615,
      "Ġisle": 6616,
      "Ġdisord": 6617,
      "Ġdislike": 6618,
      "Ġdisease": 6619,
      "Ġdisquis": 6620,
      "Ġdissect": 6621,
      "Ġdisquiet": 6622,
      "quake": 6623,
      "quired": 6624,
      "qualities": 6625,
      "respond": 6626,
      "Ġaltern": 6627,
      "Ġalchem": 6628,
      "eace": 6629,
      "eaks": 6630,
      "âĢĿâĢĶ": 6631,
      "Ġrid": 6632,
      "Ġrus": 6633,
      "Ġrud": 6634,
      "Ġrare": 6635,
      "Ġrouse": 6636,
      "Ġraven": 6637,
      "Ġrush": 6638,
      "Ġrowing": 6639,
      "Ġrational": 6640,
      "Ġragged": 6641,
      "Ġramble": 6642,
      "law": 6643,
      "lave": 6644,
      "laced": 6645,
      "lagr": 6646,
      "early": 6647,
      "Ġunful": 6648,
      "Ġunper": 6649,
      "Ġunsp": 6650,
      "Ġunrest": 6651,
      "Ġunpre": 6652,
      "Ġuninterest": 6653,
      "ĠSea": 6654,
      "ĠSave": 6655,
      "ĠSister": 6656,
      "ĠSaying": 6657,
      "ĠSTAR": 6658,
      "ĠSatan": 6659,
      "Ġwhence": 6660,
      "Ġwhenever": 6661,
      "Ġspeaks": 6662,
      "Ġsand": 6663,
      "Ġsagacity": 6664,
      "ĠHad": 6665,
      "key": 6666,
      "keys": 6667,
      "keeping": 6668,
      "ĠMen": 6669,
      "ĠMore": 6670,
      "ĠMel": 6671,
      "ĠMary": 6672,
      "ĠMiss": 6673,
      "ĠMODER": 6674,
      "ĠMuham": 6675,
      "ĠMediter": 6676,
      "ĠMiserable": 6677,
      "ĠMainz": 6678,
      "Ġallured": 6679,
      "Ġallusion": 6680,
      "Ġallev": 6681,
      "Ġorb": 6682,
      "Ġordered": 6683,
      "ĠWill": 6684,
      "ĠWinds": 6685,
      "ĠWoll": 6686,
      "ĠWhere": 6687,
      "Ġproper": 6688,
      "Ġproduct": 6689,
      "Ġproduction": 6690,
      "Ġprosec": 6691,
      "Ġcomfor": 6692,
      "Ġcomrad": 6693,
      "antial": 6694,
      "ump": 6695,
      "umes": 6696,
      "Ġpert": 6697,
      "Ġperished": 6698,
      "Ġpercept": 6699,
      "Ġperple": 6700,
      "Ġperfection": 6701,
      "Ġkill": 6702,
      "Ġappe": 6703,
      "Ġappare": 6704,
      "Ġappertaining": 6705,
      "Ġchain": 6706,
      "Ġchast": 6707,
      "Ġchord": 6708,
      "Ġchilled": 6709,
      "Ġchattered": 6710,
      "Ġchoose": 6711,
      "Ġchurch": 6712,
      "Ġchamois": 6713,
      "olic": 6714,
      "olved": 6715,
      "olution": 6716,
      "Ġdescription": 6717,
      "usation": 6718,
      "Ġamount": 6719,
      "Ġamaz": 6720,
      "Ġample": 6721,
      "venue": 6722,
      "Ġintently": 6723,
      "Ġintensity": 6724,
      "ovember": 6725,
      "Ġagitates": 6726,
      "agment": 6727,
      "ĠBE": 6728,
      "ĠBRE": 6729,
      "ĠBrit": 6730,
      "oping": 6731,
      "ospit": 6732,
      "Ġupright": 6733,
      "Ġimitation": 6734,
      "udence": 6735,
      "ĠEX": 6736,
      "ĠEBO": 6737,
      "Ġarter": 6738,
      "Ġarrest": 6739,
      "Ġshelt": 6740,
      "Ġshepher": 6741,
      "aste": 6742,
      "ortations": 6743,
      "anded": 6744,
      "andering": 6745,
      "Ġtrade": 6746,
      "Ġtrick": 6747,
      "Ġtraces": 6748,
      "Ġtrample": 6749,
      "Ġenorm": 6750,
      "Ġenrap": 6751,
      "Ġenjo": 6752,
      "Ġenerg": 6753,
      "Ġenraged": 6754,
      "Ġenquired": 6755,
      "ĠConstant": 6756,
      "ĠCONT": 6757,
      "ĠComo": 6758,
      "cial": 6759,
      "ciation": 6760,
      "Ġnois": 6761,
      "ĠFRA": 6762,
      "ĠFULL": 6763,
      "Ġdozen": 6764,
      "Ġdocile": 6765,
      "unciation": 6766,
      "ĠGenev": 6767,
      "Ġremo": 6768,
      "Ġremot": 6769,
      "Ġremonst": 6770,
      "Ġreminds": 6771,
      "ĠPG": 6772,
      "ĠPU": 6773,
      "ĠPers": 6774,
      "ĠPeace": 6775,
      "Ġexpens": 6776,
      "Ġexpanse": 6777,
      "Ġexpiration": 6778,
      "Ġexpanded": 6779,
      "Ġshoulder": 6780,
      "Ġfeels": 6781,
      "oyalty": 6782,
      "Ġcompar": 6783,
      "Ġcompose": 6784,
      "Ġcompared": 6785,
      "Ġkneel": 6786,
      "Ġknees": 6787,
      "ieu": 6788,
      "Ġabject": 6789,
      "Ġability": 6790,
      "Ġended": 6791,
      "Ġendow": 6792,
      "Ġendless": 6793,
      "Ġdaydream": 6794,
      "Ġliability": 6795,
      "Ġanywhere": 6796,
      "pty": 6797,
      "Ġcontribut": 6798,
      "Ġcontact": 6799,
      "Ġcontributed": 6800,
      "Ġcontrol": 6801,
      "Ġfriendless": 6802,
      "imely": 6803,
      "Ġaccuse": 6804,
      "Ġaccursed": 6805,
      "Ġaccuracy": 6806,
      "Ġobed": 6807,
      "Ġobvious": 6808,
      "Ġworking": 6809,
      "Ġthanks": 6810,
      "Ġquiver": 6811,
      "Ġquality": 6812,
      "Ġquenched": 6813,
      "Ġfiring": 6814,
      "Ġconsist": 6815,
      "Ġconsoles": 6816,
      "Ġconsulted": 6817,
      "blem": 6818,
      "âĢĶ.âĢĿ": 6819,
      "Ġadj": 6820,
      "Ġadversity": 6821,
      "Ġadequate": 6822,
      "Ġcoast": 6823,
      "Ġcoars": 6824,
      "retch": 6825,
      "retriev": 6826,
      "Ġovert": 6827,
      "Ġoverflow": 6828,
      "Ġoverpow": 6829,
      "Ġoverthrow": 6830,
      "Ġattain": 6831,
      "Ġattitude": 6832,
      "ĠOver": 6833,
      "ĠOcean": 6834,
      "ĠOctober": 6835,
      "Ġowns": 6836,
      "Ġscent": 6837,
      "Ġscents": 6838,
      "Ġscared": 6839,
      "Ġfault": 6840,
      "Ġfairer": 6841,
      "Ġhappen": 6842,
      "Ġhappily": 6843,
      "Ġresist": 6844,
      "Ġreside": 6845,
      "Ġresumed": 6846,
      "Ġresources": 6847,
      "Ġindiff": 6848,
      "Ġindec": 6849,
      "Ġindicating": 6850,
      "Ġeverybody": 6851,
      "erences": 6852,
      "ervation": 6853,
      "Ġreference": 6854,
      "Ġreferences": 6855,
      "ĠThink": 6856,
      "ĠThomas": 6857,
      "ĠLa": 6858,
      "ĠLost": 6859,
      "ĠLook": 6860,
      "ĠLake": 6861,
      "ĠLives": 6862,
      "ĠLuc": 6863,
      "ĠListen": 6864,
      "ĠLouis": 6865,
      "Ġdistrust": 6866,
      "Ġstrain": 6867,
      "Ġdisclo": 6868,
      "Ġpref": 6869,
      "Ġprecept": 6870,
      "arkness": 6871,
      "Ġimped": 6872,
      "Ġimposed": 6873,
      "Ġimpract": 6874,
      "Ġimpass": 6875,
      "Ġimpotent": 6876,
      "Ġimpotence": 6877,
      "Ġimpending": 6878,
      "Ġimprec": 6879,
      "Ġimpelled": 6880,
      "Ġplaited": 6881,
      "Ġplacing": 6882,
      "Ġrepay": 6883,
      "Ġrepair": 6884,
      "Ġreposed": 6885,
      "Ġreported": 6886,
      "Ġrepaid": 6887,
      "Ġrepaired": 6888,
      "Ġreplaced": 6889,
      "Ġpreserved": 6890,
      "Ġpreservation": 6891,
      "uteness": 6892,
      "utenant": 6893,
      "Ġdestination": 6894,
      "Ġros": 6895,
      "Ġroarings": 6896,
      "Ġbrand": 6897,
      "Ġbrutality": 6898,
      "Ġfounded": 6899,
      "resses": 6900,
      "Ġaffright": 6901,
      "Ġafflicted": 6902,
      "Ġaffairs": 6903,
      "Ġpoetry": 6904,
      "Ġnightingale": 6905,
      "Ġhowl": 6906,
      "Ġheartless": 6907,
      "Ġheartfelt": 6908,
      "Ġclimate": 6909,
      "ĠDay": 6910,
      "ĠDest": 6911,
      "ĠDep": 6912,
      "ĠDoth": 6913,
      "ĠDonations": 6914,
      "ĠDarkness": 6915,
      "Ġmonum": 6916,
      "Ġmonotonous": 6917,
      "Ġhoping": 6918,
      "ivors": 6919,
      "Ġpray": 6920,
      "Ġprice": 6921,
      "Ġproud": 6922,
      "Ġprayed": 6923,
      "ertion": 6924,
      "ension": 6925,
      "ensible": 6926,
      "Ġinconstant": 6927,
      "Ġincohe": 6928,
      "Ġinclemency": 6929,
      "Ġincessantly": 6930,
      "Ġ10": 6931,
      "Ġ14": 6932,
      "Ġ16": 6933,
      "Ġawaken": 6934,
      "Ġresting": 6935,
      "Ġrestrain": 6936,
      "Ġrestrict": 6937,
      "Ġwherever": 6938,
      "Ġwherefore": 6939,
      "Ġdepth": 6940,
      "Ġdepos": 6941,
      "Ġdeposed": 6942,
      "Ġdeplored": 6943,
      "Ġpurch": 6944,
      "efly": 6945,
      "efect": 6946,
      "Ġafterno": 6947,
      "Ġsuffoc": 6948,
      "Ġsufferer": 6949,
      "Ġoccasions": 6950,
      "Ġpartial": 6951,
      "Ġblunt": 6952,
      "Ġlovers": 6953,
      "Ġloaf": 6954,
      "Ġloaded": 6955,
      "Ġloitered": 6956,
      "Ġinstances": 6957,
      "Ġinstinct": 6958,
      "ĠNug": 6959,
      "ĠNovember": 6960,
      "Ġfierce": 6961,
      "ankind": 6962,
      "reme": 6963,
      "Ġfolly": 6964,
      "Ġfoliage": 6965,
      "Ġcommission": 6966,
      "Ġplays": 6967,
      "Ġplants": 6968,
      "ribly": 6969,
      "Ġkinds": 6970,
      "Ġpasses": 6971,
      "Ġconfine": 6972,
      "Ġconfines": 6973,
      "Ġconfident": 6974,
      "Ġdespise": 6975,
      "Ġdespised": 6976,
      "Ġpossibility": 6977,
      "Ġhandwriting": 6978,
      "ĠShelley": 6979,
      "Ġhumour": 6980,
      "Ġhumankind": 6981,
      "owned": 6982,
      "Ġpleasurable": 6983,
      "Ġemerg": 6984,
      "Ġempires": 6985,
      "Ġempty": 6986,
      "Ġguise": 6987,
      "Ġguiding": 6988,
      "Ġsurface": 6989,
      "Ġcrue": 6990,
      "Ġcritical": 6991,
      "Ġthrust": 6992,
      "Ġthrush": 6993,
      "Ġthrowing": 6994,
      "Ġstillness": 6995,
      "ĠJuly": 6996,
      "Ġaccepted": 6997,
      "Ġacorns": 6998,
      "Ġsensitiveness": 6999,
      "lieve": 7000,
      "ordingly": 7001,
      "Ġinfall": 7002,
      "Ġinferi": 7003,
      "Ġfearfully": 7004,
      "Ġsunset": 7005,
      "Ġexcluded": 7006,
      "Ġwoes": 7007,
      "Ġcheat": 7008,
      "Ġcheered": 7009,
      "Ġextract": 7010,
      "Ġextended": 7011,
      "Ġextensive": 7012,
      "tenance": 7013,
      "Ġmounted": 7014,
      "aviour": 7015,
      "avourable": 7016,
      "Ġvisage": 7017,
      "Ġappearing": 7018,
      "ĠIntern": 7019,
      "Ġuntimely": 7020,
      "ĠĠĠĠĠĠĠĠ": 7021,
      "acing": 7022,
      "elief": 7023,
      "Ġlights": 7024,
      "Ġlighter": 7025,
      "perience": 7026,
      "Ġsmo": 7027,
      "Ġsupple": 7028,
      "Ġsupplied": 7029,
      "Ġsupposition": 7030,
      "Ġsupposing": 7031,
      "Ġbegun": 7032,
      "Ġbeggar": 7033,
      "Ġtorpor": 7034,
      "Ġinterven": 7035,
      "Ġinterment": 7036,
      "Ġintercept": 7037,
      "Ġinternal": 7038,
      "Ġintersper": 7039,
      "Ġinterpret": 7040,
      "Ġinterview": 7041,
      "Ġbelieving": 7042,
      "ĠRes": 7043,
      "ĠRom": 7044,
      "ĠRhone": 7045,
      "ĠRedistribut": 7046,
      "ĠRotter": 7047,
      "ĠRoyalty": 7048,
      "Ġmole": 7049,
      "Ġseeming": 7050,
      "Ġnatures": 7051,
      "Ġhardy": 7052,
      "Ġdiffered": 7053,
      "ĠWhence": 7054,
      "Ġregulated": 7055,
      "Ġregular": 7056,
      "Ġregulate": 7057,
      "Ġregistered": 7058,
      "appy": 7059,
      "Ġmenaces": 7060,
      "Ġmenaced": 7061,
      "Ġflit": 7062,
      "Ġflung": 7063,
      "Ġflames": 7064,
      "Ġflushed": 7065,
      "Ġflashes": 7066,
      "Ġfamine": 7067,
      "Ġsubsequ": 7068,
      "Ġimaginary": 7069,
      "Ġcope": 7070,
      "Ġcopied": 7071,
      "Ġpromoting": 7072,
      "Ġpromises": 7073,
      "Ġprominently": 7074,
      "Ġresolutions": 7075,
      "Ġpresentiment": 7076,
      "Ġturns": 7077,
      "Ġturnkeys": 7078,
      "Ġsynd": 7079,
      "Ġdecayed": 7080,
      "Ġdecision": 7081,
      "Ġdecisive": 7082,
      "Ġdeepest": 7083,
      "Ġlabourers": 7084,
      "Ġsecured": 7085,
      "dening": 7086,
      "ĠUse": 7087,
      "ĠUrged": 7088,
      "Ġidleness": 7089,
      "Ġcreations": 7090,
      "Ġpeaks": 7091,
      "Ġwrong": 7092,
      "Ġcurious": 7093,
      "Ġcurling": 7094,
      "Ġcalling": 7095,
      "Ġrelative": 7096,
      "Ġrelatives": 7097,
      "ĠAsia": 7098,
      "Ġsins": 7099,
      "Ġexists": 7100,
      "Ġexisting": 7101,
      "Ġmomentary": 7102,
      "Ġmomentarily": 7103,
      "Ġactual": 7104,
      "Ġactually": 7105,
      "Ġassertion": 7106,
      "ĠArthur": 7107,
      "Ġsouls": 7108,
      "joyed": 7109,
      "Ġillust": 7110,
      "Ġillustrious": 7111,
      "Ġapprove": 7112,
      "Ġapprobation": 7113,
      "Ġadduced": 7114,
      "Ġbounding": 7115,
      "Ġboundaries": 7116,
      "Ġstrewed": 7117,
      "Ġstreamed": 7118,
      "Ġearthquake": 7119,
      "Ġjourneying": 7120,
      "ecause": 7121,
      "ĠVanilla": 7122,
      "Ġcalam": 7123,
      "Ġcharity": 7124,
      "Ġcharnel": 7125,
      "Ġenjoys": 7126,
      "Ġenjoying": 7127,
      "Ġenjoyments": 7128,
      "Ġacquitted": 7129,
      "Ġacquaint": 7130,
      "Ġgentleman": 7131,
      "Ġsincere": 7132,
      "ician": 7133,
      "iciency": 7134,
      "duce": 7135,
      "Ġcarelessly": 7136,
      "Ġoffered": 7137,
      "Ġoffice": 7138,
      "Ġoffers": 7139,
      "Ġoffering": 7140,
      "Ġlistless": 7141,
      "Ġlistener": 7142,
      "Ġstately": 7143,
      "Ġvaried": 7144,
      "Ġjustified": 7145,
      "Ġadvice": 7146,
      "Ġsympathising": 7147,
      "ibed": 7148,
      "ibilities": 7149,
      "Ġterribly": 7150,
      "Ġfellows": 7151,
      "Ġexpressions": 7152,
      "Ġprotract": 7153,
      "Ġairy": 7154,
      "ailing": 7155,
      "Ġlanding": 7156,
      "Ġangry": 7157,
      "Ġelectricity": 7158,
      "Ġthinking": 7159,
      "Ġlaying": 7160,
      "Ġrequested": 7161,
      "Ġrequisition": 7162,
      "Ġhereafter": 7163,
      "Ġanimate": 7164,
      "elling": 7165,
      "Ġwarmer": 7166,
      "Ġwarmest": 7167,
      "Ġmodified": 7168,
      "Ġmodesty": 7169,
      "Ġmoderation": 7170,
      "Ġswim": 7171,
      "Ġsworn": 7172,
      "Ġlanguid": 7173,
      "ompose": 7174,
      "Ġbehaviour": 7175,
      "Ġsolve": 7176,
      "Ġprofited": 7177,
      "Ġprofits": 7178,
      "Ġproficiency": 7179,
      "Ġprovision": 7180,
      "Ġprovisions": 7181,
      "Ġproceeding": 7182,
      "Ġpersonal": 7183,
      "Ġpersonally": 7184,
      "Ġelectronically": 7185,
      "Ġdirectly": 7186,
      "cribe": 7187,
      "ounced": 7188,
      "Ġfrank": 7189,
      "Ġfringed": 7190,
      "Ġfruit": 7191,
      "Ġfragment": 7192,
      "Ġcapr": 7193,
      "Ġcircle": 7194,
      "ĠAlthough": 7195,
      "ĠAlpine": 7196,
      "Ġrecover": 7197,
      "Ġwanderer": 7198,
      "Ġminiature": 7199,
      "Ġmagic": 7200,
      "Ġsettled": 7201,
      "Ġengaging": 7202,
      "Ġseeking": 7203,
      "Ġsleepless": 7204,
      "Ġirrad": 7205,
      "Ġirretriev": 7206,
      "Ġwishing": 7207,
      "Ġhasty": 7208,
      "rifts": 7209,
      "Ġuncons": 7210,
      "Ġunchecked": 7211,
      "Ġproposition": 7212,
      "Ġprophetic": 7213,
      "Ġproportions": 7214,
      "Ġinterests": 7215,
      "Ġextremest": 7216,
      "Ġextremity": 7217,
      "Ġcalmness": 7218,
      "there": 7219,
      "their": 7220,
      "Ġsaying": 7221,
      "Ġhighlands": 7222,
      "Ġpersuasion": 7223,
      "Ġpersuasions": 7224,
      "Ġpersuading": 7225,
      "Ġnecessarily": 7226,
      "Ġpurport": 7227,
      "Ġmurderous": 7228,
      "Ġcircumstantial": 7229,
      "Ġskin": 7230,
      "Ġskies": 7231,
      "Ġskiff": 7232,
      "Ġinsisted": 7233,
      "Ġinsatiable": 7234,
      "Ġinsensible": 7235,
      "Ġlesson": 7236,
      "Ġlessened": 7237,
      "Ġgeneration": 7238,
      "Ġgenerosity": 7239,
      "Ġusefulness": 7240,
      "ifications": 7241,
      "Ġplayfully": 7242,
      "Ġplaything": 7243,
      "Ġplaymate": 7244,
      "Ġplayfellow": 7245,
      "Ġsurrounding": 7246,
      "Ġmotive": 7247,
      "Ġbroad": 7248,
      "Ġbrooded": 7249,
      "Ġbrook": 7250,
      "Ġhorseback": 7251,
      "Ġparadise": 7252,
      "Ġparox": 7253,
      "assing": 7254,
      "Ġeastern": 7255,
      "Ġreasonable": 7256,
      "Ġreasonably": 7257,
      "Ġprognost": 7258,
      "Ġsurprising": 7259,
      "Ġ21": 7260,
      "Ġ22": 7261,
      "Ġ23": 7262,
      "Ġ24": 7263,
      "Ġmaddening": 7264,
      "Ġlimit": 7265,
      "Ġlimited": 7266,
      "Ġconversing": 7267,
      "Ġconversations": 7268,
      "Ġhistories": 7269,
      "Ġexhortations": 7270,
      "Ġprevents": 7271,
      "ĠUnless": 7272,
      "ĠUncle": 7273,
      "Ġfalling": 7274,
      "Ġrealise": 7275,
      "choed": 7276,
      "Ġdispel": 7277,
      "Ġdisposed": 7278,
      "Ġproclaim": 7279,
      "Ġcheering": 7280,
      "Ġmarket": 7281,
      "Ġbarn": 7282,
      "Ġhungry": 7283,
      "Ġeagle": 7284,
      "Ġsolely": 7285,
      "eakable": 7286,
      "Ġimmort": 7287,
      "Ġimmured": 7288,
      "Ġimmeas": 7289,
      "Ġimminent": 7290,
      "Ġwatery": 7291,
      "Ġstudying": 7292,
      "Ġavow": 7293,
      "Ġsickbed": 7294,
      "Ġhidden": 7295,
      "Ġcastle": 7296,
      "Ġthird": 7297,
      "Ġrevisit": 7298,
      "Ġmemorable": 7299,
      "Ġunfit": 7300,
      "Ġunfair": 7301,
      "Ġunfeeling": 7302,
      "Ġunfinished": 7303,
      "Ġunfavourable": 7304,
      "Ġsprung": 7305,
      "Ġcloudy": 7306,
      "Ġrecollections": 7307,
      "Ġrapidity": 7308,
      "ughter": 7309,
      "Ġtales": 7310,
      "ernal": 7311,
      "Ġblessings": 7312,
      "Ġinquisitive": 7313,
      "Ġmeanwhile": 7314,
      "Ġspeaking": 7315,
      "Ġsails": 7316,
      "Ġconfessor": 7317,
      "Ġconducting": 7318,
      "Ġboats": 7319,
      "graphy": 7320,
      "ysm": 7321,
      "Ġkeen": 7322,
      "Ġwaved": 7323,
      "Ġwaiting": 7324,
      "Ġmalignant": 7325,
      "Ġfinal": 7326,
      "Ġfinally": 7327,
      "Ġinequalities": 7328,
      "Ġinjuries": 7329,
      "Ġinvolunt": 7330,
      "Ġinvulnerable": 7331,
      "Ġequals": 7332,
      "Ġequalled": 7333,
      "cellent": 7334,
      "Ġexamination": 7335,
      "Ġexample": 7336,
      "Ġconsumption": 7337,
      "Ġattendants": 7338,
      "Ġpointing": 7339,
      "Ġclosely": 7340,
      "Ġopening": 7341,
      "Ġthirsted": 7342,
      "Ġdescends": 7343,
      "Ġaccorded": 7344,
      "Ġaccordance": 7345,
      "Ġcommunion": 7346,
      "ĠArabic": 7347,
      "Ġbeneficial": 7348,
      "Ġfatigued": 7349,
      "Ġcorrect": 7350,
      "Ġcorrespond": 7351,
      "Ġdrag": 7352,
      "Ġdraught": 7353,
      "Ġdragged": 7354,
      "Ġpenury": 7355,
      "ĠTurkey": 7356,
      "Ġexcellence": 7357,
      "Ġvolumes": 7358,
      "ĠMontanvert": 7359,
      "Ġprospects": 7360,
      "Ġarts": 7361,
      "Ġarticulate": 7362,
      "Ġexplore": 7363,
      "Ġoblivion": 7364,
      "Ġprecipice": 7365,
      "Ġprecipitate": 7366,
      "Ġprecipitous": 7367,
      "Ġgratified": 7368,
      "Ġincreasing": 7369,
      "Ġsolemnisation": 7370,
      "kindled": 7371,
      "Ġtenderest": 7372,
      "Ġcaresses": 7373,
      "Ġlowest": 7374,
      "Ġgraves": 7375,
      "Ġassociate": 7376,
      "ĠTHAT": 7377,
      "Ġstepped": 7378,
      "Ġsteady": 7379,
      "Ġexception": 7380,
      "Ġshutters": 7381,
      "Ġcontentment": 7382,
      "Ġrocky": 7383,
      "Ġcompanionship": 7384,
      "Ġtravellers": 7385,
      "Ġconcealing": 7386,
      "Ġvegetables": 7387,
      "Ġmentioning": 7388,
      "Ġsingularly": 7389,
      "Ġforeign": 7390,
      "Ġforebod": 7391,
      "Ġsustenance": 7392,
      "Ġtraverse": 7393,
      "Ġblinded": 7394,
      "Ġfamilies": 7395,
      "Ġnorthwards": 7396,
      "Ġhideousness": 7397,
      "Ġcommunicate": 7398,
      "Ġcommunicating": 7399,
      "Ġwrecked": 7400,
      "Ġmedic": 7401,
      "Ġmeditate": 7402,
      "Ġmutable": 7403,
      "Ġmutiny": 7404,
      "Ġslaughter": 7405,
      "Ġsignal": 7406,
      "Ġsignification": 7407,
      "Ġbreezes": 7408,
      "Ġhurry": 7409,
      "Ġsuspended": 7410,
      "ampled": 7411,
      "Ġunwholes": 7412,
      "ĠMariner": 7413,
      "Ġdistinctly": 7414,
      "Ġoccasioned": 7415,
      "Ġtormenting": 7416,
      "ĠEnglishman": 7417,
      "Ġelevates": 7418,
      "Ġelevating": 7419,
      "ĠTurkish": 7420,
      "Ġhonourable": 7421,
      "Ġtearing": 7422,
      "Ġsinks": 7423,
      "Ġsinking": 7424,
      "Ġbrightness": 7425,
      "Ġdomin": 7426,
      "Ġdomes": 7427,
      "Ġdomain": 7428,
      "Ġpublicly": 7429,
      "Ġneglect": 7430,
      "Ġremarked": 7431,
      "Ġremarkable": 7432,
      "Ġretreated": 7433,
      "Ġattractive": 7434,
      "Ġprinted": 7435,
      "Ġincludes": 7436,
      "Ġparticular": 7437,
      "Ġdespondence": 7438,
      "Ġobscured": 7439,
      "Ġruins": 7440,
      "Ġmournfully": 7441,
      "Ġoverwhelm": 7442,
      "cript": 7443,
      "Ġoriental": 7444,
      "Ġinspirited": 7445,
      "Ġheroic": 7446,
      "Ġheroism": 7447,
      "imental": 7448,
      "Ġgrey": 7449,
      "Ġgreedily": 7450,
      "Ġunde": 7451,
      "Ġundiscovered": 7452,
      "Ġforgot": 7453,
      "Ġdefend": 7454,
      "Ġweakened": 7455,
      "aints": 7456,
      "Ġexerted": 7457,
      "Ġdisgrace": 7458,
      "ĠSee": 7459,
      "ĠManoir": 7460,
      "ĠEverywhere": 7461,
      "Ġcompletely": 7462,
      "Ġindulge": 7463,
      "Ġindulging": 7464,
      "Ġfondly": 7465,
      "Ġfondness": 7466,
      "Ġphysiog": 7467,
      "Ġphysician": 7468,
      "Ġterrified": 7469,
      "Ġfatality": 7470,
      "Ġtriumphed": 7471,
      "Ġeducated": 7472,
      "Ġmagnificence": 7473,
      "ogue": 7474,
      "Ġbloomed": 7475,
      "Ġflying": 7476,
      "Ġfurs": 7477,
      "Ġharmony": 7478,
      "Ġnortheast": 7479,
      "Ġlieu": 7480,
      "Ġlieutenant": 7481,
      "ĠAmong": 7482,
      "ĠMorning": 7483,
      "Ġapprehend": 7484,
      "Ġindignant": 7485,
      "Ġprecision": 7486,
      "Ġprecarious": 7487,
      "Ġsurvivors": 7488,
      "Ġinterrupt": 7489,
      "Ġminutely": 7490,
      "Ġrevolution": 7491,
      "Ġkeeping": 7492,
      "Ġinexhaust": 7493,
      "Ġinexpress": 7494,
      "Ġrespects": 7495,
      "Ġargument": 7496,
      "judiced": 7497,
      "Ġtype": 7498,
      "Ġtyran": 7499,
      "Ġtouching": 7500,
      "Ġboyhood": 7501,
      "Ġmysteries": 7502,
      "Ġreveal": 7503,
      "Ġgenial": 7504,
      "Ġannoy": 7505,
      "Ġannounce": 7506,
      "Ġfeminine": 7507,
      "ĠAnge": 7508,
      "ĠAnother": 7509,
      "Ġrambling": 7510,
      "Ġinclined": 7511,
      "Ġinclude": 7512,
      "Ġinclinations": 7513,
      "Ġinstructed": 7514,
      "Ġwoeful": 7515,
      "Ġsecondary": 7516,
      "Ġirrevoc": 7517,
      "Ġirregular": 7518,
      "Ġexhaustion": 7519,
      "Ġprevented": 7520,
      "Ġtemperature": 7521,
      "Ġvoluntary": 7522,
      "Ġconstantly": 7523,
      "Ġprinciple": 7524,
      "Ġexercised": 7525,
      "Ġmajesty": 7526,
      "Ġpronouncing": 7527,
      "Begone": 7528,
      "Ġerad": 7529,
      "Ġoperation": 7530,
      "Ġfinger": 7531,
      "Ġfilm": 7532,
      "Ġfloated": 7533,
      "Ġhuts": 7534,
      "Ġdimmed": 7535,
      "Ġpalaces": 7536,
      "Ġpriest": 7537,
      "Ġpractice": 7538,
      "Ġpractically": 7539,
      "Ġlinked": 7540,
      "Ġbeaten": 7541,
      "Ġredeem": 7542,
      "Ġreverie": 7543,
      "Ġrewarded": 7544,
      "Ġwhisper": 7545,
      "Ġusually": 7546,
      "Ġforbear": 7547,
      "Ġdeeds": 7548,
      "Ġexceeded": 7549,
      "Ġexceedingly": 7550,
      "Ġshrill": 7551,
      "Ġdismay": 7552,
      "Ġcombat": 7553,
      "Ġperseverance": 7554,
      "Ġagonising": 7555,
      "ĠBeloved": 7556,
      "Ġenvy": 7557,
      "ĠPROMETH": 7558,
      "Ġcompleted": 7559,
      "Ġresults": 7560,
      "ĠLIAB": 7561,
      "ĠLICEN": 7562,
      "Ġroads": 7563,
      "Ġfootstep": 7564,
      "Ġencountering": 7565,
      "Ġconsummate": 7566,
      "Ġanxiously": 7567,
      "Ġconsequently": 7568,
      "ĠScotch": 7569,
      "Ġcrowded": 7570,
      "rica": 7571,
      "Ġwidow": 7572,
      "Ġwidest": 7573,
      "Ġmien": 7574,
      "Ġmainland": 7575,
      "Ġmaintenance": 7576,
      "Ġbuild": 7577,
      "Ġbuilt": 7578,
      "Ġfanned": 7579,
      "Ġfancies": 7580,
      "Ġfunctions": 7581,
      "Ġfervent": 7582,
      "Ġcustoms": 7583,
      "Ġcolours": 7584,
      "Ġdedicated": 7585,
      "Ġdamps": 7586,
      "Ġdamages": 7587,
      "Ġpunish": 7588,
      "Ġpatient": 7589,
      "Ġeaten": 7590,
      "Ġresembled": 7591,
      "Ġresembling": 7592,
      "Ġresemblance": 7593,
      "Ġmeasures": 7594,
      "Ġgesture": 7595,
      "Ġconjured": 7596,
      "Ġsolicit": 7597,
      "Ġsolicited": 7598,
      "ĠAdieu": 7599,
      "Ġprolonged": 7600,
      "Ġimbibed": 7601,
      "Ġenchanted": 7602,
      "Ġaccumulation": 7603,
      "Ġaccomplished": 7604,
      "Ġquietly": 7605,
      "Ġoverhangs": 7606,
      "ĠOrkney": 7607,
      "Ġbecomes": 7608,
      "Ġprejudice": 7609,
      "Ġprejudices": 7610,
      "Ġprejudiced": 7611,
      "Ġgrandeur": 7612,
      "Ġdependent": 7613,
      "Ġcommanded": 7614,
      "Ġguessed": 7615,
      "Ġguarded": 7616,
      "Ġguardian": 7617,
      "Ġdetestable": 7618,
      "Ġsubsist": 7619,
      "Ġsubsisted": 7620,
      "Ġwrithed": 7621,
      "Ġwriters": 7622,
      "Ġadvantages": 7623,
      "Ġoppression": 7624,
      "Ġespecial": 7625,
      "Ġtemporary": 7626,
      "Ġbarbarity": 7627,
      "Ġavailable": 7628,
      "Ġinfluenced": 7629,
      "Ġapprehensions": 7630,
      "Ġschools": 7631,
      "Ġlaughing": 7632,
      "Ġsacrificed": 7633,
      "Ġmethods": 7634,
      "EMENT": 7635,
      "ING": 7636,
      "While": 7637,
      "ranean": 7638,
      "Ġ90": 7639,
      "Ġtinged": 7640,
      "Ġtingling": 7641,
      "Ġtreasure": 7642,
      "Ġsloping": 7643,
      "Ġsaluted": 7644,
      "Ġbalanced": 7645,
      "ĠIndeed": 7646,
      "Ġcosts": 7647,
      "Ġpatri": 7648,
      "Ġpistols": 7649,
      "Ġlineaments": 7650,
      "Ġrelaxed": 7651,
      "Ġrelapse": 7652,
      "Ġgallant": 7653,
      "Ġugliness": 7654,
      "Ġdebility": 7655,
      "Ġstarvation": 7656,
      "Ġshrink": 7657,
      "Ġradiance": 7658,
      "Ġuneasiness": 7659,
      "Ġspecified": 7660,
      "Ġchimney": 7661,
      "Ġdesiring": 7662,
      "ĠExcept": 7663,
      "Ġensure": 7664,
      "ĠGreek": 7665,
      "ĠGreece": 7666,
      "Ġabandon": 7667,
      "Ġcontaining": 7668,
      "Ġobstructed": 7669,
      "Ġattentive": 7670,
      "Ġfacility": 7671,
      "Ġresigned": 7672,
      "Ġresignation": 7673,
      "Ġthenceforth": 7674,
      "Ġimprinted": 7675,
      "Ġimperfect": 7676,
      "Ġrepentance": 7677,
      "Ġpoisoned": 7678,
      "Ġclosest": 7679,
      "Ġmonsters": 7680,
      "Ġincredible": 7681,
      "Ġincredulous": 7682,
      "Ġopinions": 7683,
      "Ġilluminate": 7684,
      "Ġilluminated": 7685,
      "Ġcalculated": 7686,
      "Ġengagement": 7687,
      "Ġunfolded": 7688,
      "Ġunfolding": 7689,
      "Ġtalking": 7690,
      "Ġencourage": 7691,
      "Ġencouraged": 7692,
      "Ġbenefactors": 7693,
      "Ġhabitations": 7694,
      "Ġconfirmation": 7695,
      "Ġembarkation": 7696,
      "Ġmuscle": 7697,
      "Ġluxuriant": 7698,
      "Ġcomplexion": 7699,
      "Ġesteemed": 7700,
      "Ġexclamations": 7701,
      "ATION": 7702,
      "Ġaudible": 7703,
      "Ġmoulded": 7704,
      "Ġmassac": 7705,
      "Ġfashioned": 7706,
      "Ġcentury": 7707,
      "Ġpanes": 7708,
      "Ġpraise": 7709,
      "Ġpacked": 7710,
      "Ġpiercing": 7711,
      "Ġlulled": 7712,
      "Ġelder": 7713,
      "Ġeldest": 7714,
      "Ġdelicate": 7715,
      "Ġanti": 7716,
      "Ġstartled": 7717,
      "Ġsuggested": 7718,
      "Ġsuggestion": 7719,
      "Ġvigour": 7720,
      "Ġvacancy": 7721,
      "Ġherbage": 7722,
      "Ġroute": 7723,
      "Ġroutine": 7724,
      "Ġunjustly": 7725,
      "ĠEuropean": 7726,
      "ĠProfess": 7727,
      "Ġcomputer": 7728,
      "Ġcomputers": 7729,
      "Ġenticements": 7730,
      "âĢĶâĢľ_": 7731,
      "Ġattacked": 7732,
      "Ġdisclaimer": 7733,
      "Ġreproach": 7734,
      "Ġclasping": 7735,
      "ĠDespair": 7736,
      "Ġinconven": 7737,
      "Ġinconceiv": 7738,
      "Ġtorrents": 7739,
      "Ġdifficulties": 7740,
      "Ġsystems": 7741,
      "Ġlegal": 7742,
      "Ġbetray": 7743,
      "Ġbetrayed": 7744,
      "Ġacquirement": 7745,
      "Ġadventure": 7746,
      "Ġadventurous": 7747,
      "Ġpreparation": 7748,
      "Ġprevailed": 7749,
      "Ġsimpler": 7750,
      "Ġsimplest": 7751,
      "Ġgroaned": 7752,
      "Ġerrone": 7753,
      "Ġerrors": 7754,
      "Ġverdure": 7755,
      "Ġverdant": 7756,
      "Ġglimmer": 7757,
      "Ġunexpected": 7758,
      "Ġunexplored": 7759,
      "Ġsqualidness": 7760,
      "ĠWARRANTY": 7761,
      "ĠWARRANTIES": 7762,
      "Ancient": 7763,
      "IBUT": 7764,
      "TRIBUT": 7765,
      "Ġtestim": 7766,
      "Ġteacher": 7767,
      "Ġtrifling": 7768,
      "Ġalighted": 7769,
      "Ġbenignity": 7770,
      "Ġbased": 7771,
      "Ġbriefly": 7772,
      "Ġbolt": 7773,
      "Ġfurniture": 7774,
      "Ġclapped": 7775,
      "Ġcandour": 7776,
      "Ġdictate": 7777,
      "Ġdiverted": 7778,
      "Ġinherited": 7779,
      "Ġlingered": 7780,
      "Ġelse": 7781,
      "Ġbeaming": 7782,
      "Ġheaths": 7783,
      "Ġgales": 7784,
      "Ġwithdrew": 7785,
      "Ġdews": 7786,
      "Ġdejection": 7787,
      "Ġconquered": 7788,
      "Ġconvenience": 7789,
      "Ġanticip": 7790,
      "ĠâĢĶâĢĶ": 7791,
      "Ġsupreme": 7792,
      "Ġexasperated": 7793,
      "ĠAGREE": 7794,
      "Ġissue": 7795,
      "Ġruled": 7796,
      "Ġunguarded": 7797,
      "ĠServox": 7798,
      "Ġsplit": 7799,
      "Ġmanifested": 7800,
      "Ġalleging": 7801,
      "Ġordinary": 7802,
      "Ġorganiz": 7803,
      "ĠWestmor": 7804,
      "Ġprosperity": 7805,
      "Ġchivalry": 7806,
      "Ġdesolated": 7807,
      "Ġintrusion": 7808,
      "opyright": 7809,
      "ĠEvian": 7810,
      "ĠCreator": 7811,
      "ĠGreen": 7812,
      "Ġcomplaints": 7813,
      "Ġcompensated": 7814,
      "Ġquarters": 7815,
      "Ġindelible": 7816,
      "ĠLike": 7817,
      "Ġstrangled": 7818,
      "Ġimportant": 7819,
      "ĠItalian": 7820,
      "Ġgrowth": 7821,
      "Ġrolled": 7822,
      "Ġaffecting": 7823,
      "Ġaffirmative": 7824,
      "ĠDISTRIBUT": 7825,
      "Ġrecompense": 7826,
      "Ġawait": 7827,
      "Ġdepraved": 7828,
      "Ġparticipate": 7829,
      "Ġfolds": 7830,
      "Ġsurpassing": 7831,
      "Ġinterchange": 7832,
      "Ġinterpreted": 7833,
      "ĠRussia": 7834,
      "Ġflourishing": 7835,
      "Ġfluctuating": 7836,
      "Ġdecreased": 7837,
      "ĠUpon": 7838,
      "Ġidentify": 7839,
      "Ġcrevice": 7840,
      "Ġassassin": 7841,
      "Ġgrieved": 7842,
      "Ġrecognised": 7843,
      "Ġministers": 7844,
      "Ġabsorbed": 7845,
      "Ġabsolutely": 7846,
      "Ġinquirers": 7847,
      "Ġjoints": 7848,
      "Ġwantonly": 7849,
      "Ġdrunk": 7850,
      "Ġpostponed": 7851,
      "Ġunworthy": 7852,
      "Ġconsecrate": 7853,
      "Ġmiraculous": 7854,
      "Ġassemblage": 7855,
      "Ġunsatisfied": 7856,
      "Ġtreachery": 7857,
      "Ġachieve": 7858,
      "Ġnovelties": 7859,
      "Ġwhirlwinds": 7860,
      "ĠDAMAGES": 7861,
      "Ġuncontrollable": 7862,
      "Dearest": 7863,
      "Devil": 7864,
      "EUS": 7865,
      "IRECT": 7866,
      "NKENST": 7867,
      "Paradise": 7868,
      "Several": 7869,
      "Soon": 7870,
      "craft": 7871,
      "donate": 7872,
      "moving": 7873,
      "minded": 7874,
      "offing": 7875,
      "Ġutensils": 7876,
      "Ġtidings": 7877,
      "Ġtapped": 7878,
      "Ġtribute": 7879,
      "Ġmummy": 7880,
      "Ġmaker": 7881,
      "Ġsanguinary": 7882,
      "Ġsaintly": 7883,
      "educated": 7884,
      "Ġbaffled": 7885,
      "Ġfoster": 7886,
      "Ġfertile": 7887,
      "Ġfifteen": 7888,
      "ĠImmense": 7889,
      "Ġhusband": 7890,
      "Ġharrowing": 7891,
      "Ġcelebrated": 7892,
      "Ġdusk": 7893,
      "Ġdizzy": 7894,
      "Ġdauntless": 7895,
      "Ġdiabol": 7896,
      "Ġpolit": 7897,
      "Ġphenomena": 7898,
      "Ġthrill": 7899,
      "Ġinarticulate": 7900,
      "Ġnuts": 7901,
      "Ġlustrous": 7902,
      "Ġlonely": 7903,
      "Ġelixir": 7904,
      "Ġreceipt": 7905,
      "Ġrejected": 7906,
      "Ġreassure": 7907,
      "stonecraft": 7908,
      "Ġwhatever": 7909,
      "Ġmeadows": 7910,
      "Ġglobe": 7911,
      "Ġgeography": 7912,
      "Ġultimately": 7913,
      "Ġwelfare": 7914,
      "Ġconciliating": 7915,
      "Ġconsternation": 7916,
      "Ġcongratulatory": 7917,
      "Ġanalys": 7918,
      "ĠTurning": 7919,
      "ĠTerms": 7920,
      "Ġstifle": 7921,
      "Ġsuccour": 7922,
      "Ġvintage": 7923,
      "Ġsockets": 7924,
      "ĠAccordingly": 7925,
      "ĠASCII": 7926,
      "Ġdisorder": 7927,
      "Ġalternate": 7928,
      "Ġalchemists": 7929,
      "Ġrushing": 7930,
      "Ġrudder": 7931,
      "Ġunfulfilled": 7932,
      "Ġunperceived": 7933,
      "Ġunspeakable": 7934,
      "Ġunrestrained": 7935,
      "Ġunprejudiced": 7936,
      "ĠSTART": 7937,
      "ĠMODERN": 7938,
      "ĠMuhammad": 7939,
      "ĠMediterranean": 7940,
      "ĠWindsor": 7941,
      "ĠWollstonecraft": 7942,
      "Ġproductions": 7943,
      "Ġprosecution": 7944,
      "Ġcomforter": 7945,
      "Ġcomrades": 7946,
      "Ġperplexed": 7947,
      "Ġapparel": 7948,
      "Ġamounted": 7949,
      "ĠBREACH": 7950,
      "ĠBritain": 7951,
      "ĠEBOOK": 7952,
      "Ġsheltered": 7953,
      "Ġshepherd": 7954,
      "Ġenormity": 7955,
      "Ġenraptured": 7956,
      "Ġenjoined": 7957,
      "ĠConstantinople": 7958,
      "ĠFRANKENST": 7959,
      "Ġremonstrate": 7960,
      "ĠPersian": 7961,
      "Ġexpenses": 7962,
      "Ġdaydreams": 7963,
      "Ġoverflowing": 7964,
      "ĠLucerne": 7965,
      "Ġdisclosed": 7966,
      "Ġincoherent": 7967,
      "Ġrestrictions": 7968,
      "Ġafternoon": 7969,
      "Ġsuffocated": 7970,
      "Ġpartiality": 7971,
      "ĠNugent": 7972,
      "Ġinterspersed": 7973,
      "Ġinterpretation": 7974,
      "ĠRotterdam": 7975,
      "Ġsubsequent": 7976,
      "Ġunconscious": 7977,
      "Ġparoxysm": 7978,
      "Ġinvoluntarily": 7979,
      "Ġcorrespondence": 7980,
      "Ġforebodings": 7981,
      "Ġunwholesome": 7982,
      "Ġphysiognomy": 7983,
      "Ġinexhaustible": 7984,
      "Ġinexpressible": 7985,
      "Ġirrevocably": 7986,
      "ĠPROMETHEUS": 7987,
      "ĠLICENSE": 7988,
      "Ġfootsteps": 7989,
      "ĠProfessor": 7990,
      "Ġinconceivable": 7991,
      "ĠWestmorland": 7992,
      "ĠFRANKENSTEIN": 7993,
      "!_": 7994,
      "!âĢĶ": 7995,
      ")(": 7996,
      ");": 7997,
      ").âĢĿ": 7998,
      ".]": 7999,
      "09": 8000,
      "15": 8001,
      "16": 8002,
      "18": 8003,
      "22": 8004,
      "24": 8005,
      "622": 8006,
      "84": 8007,
      "87": 8008,
      "801": 8009,
      "93": 8010,
      "96": 8011,
      ";_": 8012,
      ";âĢĶ": 8013,
      "AD": 8014,
      "AS": 8015,
      "Ab": 8016,
      "Ag": 8017,
      "Aw": 8018,
      "All": 8019,
      "Aut": 8020,
      "Acc": 8021,
      "Alp": 8022,
      "ARA": 8023,
      "ANT": 8024,
      "ASE": 8025,
      "AVE": 8026,
      "Boy": 8027,
      "Book": 8028,
      "CL": 8029,
      "Ch": 8030,
      "Can": 8031,
      "Col": 8032,
      "Certain": 8033,
      "Cursed": 8034,
      "CLA": 8035,
      "Compose": 8036,
      "CEMENT": 8037,
      "During": 8038,
      "DED": 8039,
      "DEM": 8040,
      "DENT": 8041,
      "Defect": 8042,
      "DING": 8043,
      "EG": 8044,
      "Ex": 8045,
      "Enter": 8046,
      "FO": 8047,
      "FU": 8048,
      "Fr": 8049,
      "Fear": 8050,
      "Food": 8051,
      "Fiend": 8052,
      "Get": 8053,
      "Great": 8054,
      "GRA": 8055,
      "Grace": 8056,
      "HT": 8057,
      "Hate": 8058,
      "Hide": 8059,
      "Hav": 8060,
      "Heaven": 8061,
      "IM": 8062,
      "Im": 8063,
      "ICT": 8064,
      "IND": 8065,
      "IED": 8066,
      "IAL": 8067,
      "ICE": 8068,
      "IDED": 8069,
      "July": 8070,
      "Let": 8071,
      "Last": 8072,
      "Little": 8073,
      "LIG": 8074,
      "LIED": 8075,
      "ML": 8076,
      "MP": 8077,
      "Man": 8078,
      "Night": 8079,
      "Near": 8080,
      "None": 8081,
      "Nothing": 8082,
      "NER": 8083,
      "NIT": 8084,
      "NES": 8085,
      "NITY": 8086,
      "Of": 8087,
      "On": 8088,
      "Or": 8089,
      "Other": 8090,
      "OSS": 8091,
      "PH": 8092,
      "PT": 8093,
      "PRE": 8094,
      "Presently": 8095,
      "Pardon": 8096,
      "PLA": 8097,
      "POSE": 8098,
      "Prepare": 8099,
      "QU": 8100,
      "RS": 8101,
      "Ru": 8102,
      "Right": 8103,
      "Rise": 8104,
      "RPOSE": 8105,
      "Some": 8106,
      "Spr": 8107,
      "Shall": 8108,
      "Since": 8109,
      "Surely": 8110,
      "Slave": 8111,
      "Tin": 8112,
      "Then": 8113,
      "Thus": 8114,
      "TML": 8115,
      "Un": 8116,
      "UCH": 8117,
      "UAL": 8118,
      "Urged": 8119,
      "UDING": 8120,
      "Vill": 8121,
      "VEN": 8122,
      "Very": 8123,
      "VIDED": 8124,
      "We": 8125,
      "Wel": 8126,
      "Where": 8127,
      "Words": 8128,
      "Wandering": 8129,
      "Wretch": 8130,
      "WNER": 8131,
      "_;": 8132,
      "_,âĢĿ": 8133,
      "aver": 8134,
      "aul": 8135,
      "aved": 8136,
      "ael": 8137,
      "aig": 8138,
      "aise": 8139,
      "aac": 8140,
      "ault": 8141,
      "axed": 8142,
      "acious": 8143,
      "aque": 8144,
      "bb": 8145,
      "bl": 8146,
      "bat": 8147,
      "bit": 8148,
      "bir": 8149,
      "bro": 8150,
      "bri": 8151,
      "bul": 8152,
      "bres": 8153,
      "bable": 8154,
      "bered": 8155,
      "bted": 8156,
      "bated": 8157,
      "boy": 8158,
      "bled": 8159,
      "bble": 8160,
      "bours": 8161,
      "borrow": 8162,
      "bdu": 8163,
      "bably": 8164,
      "bons": 8165,
      "bury": 8166,
      "bbing": 8167,
      "boat": 8168,
      "balls": 8169,
      "belief": 8170,
      "because": 8171,
      "co": 8172,
      "can": 8173,
      "could": 8174,
      "cul": 8175,
      "cest": 8176,
      "come": 8177,
      "creat": 8178,
      "cary": 8179,
      "chen": 8180,
      "case": 8181,
      "circ": 8182,
      "caves": 8183,
      "cued": 8184,
      "ceness": 8185,
      "cency": 8186,
      "camp": 8187,
      "cope": 8188,
      "comm": 8189,
      "crease": 8190,
      "contro": 8191,
      "cerity": 8192,
      "curg": 8193,
      "copyright": 8194,
      "ded": 8195,
      "dro": 8196,
      "dest": 8197,
      "dear": 8198,
      "dry": 8199,
      "due": 8200,
      "deed": 8201,
      "dition": 8202,
      "dling": 8203,
      "dleness": 8204,
      "dges": 8205,
      "dying": 8206,
      "dog": 8207,
      "dev": 8208,
      "ditional": 8209,
      "doms": 8210,
      "durate": 8211,
      "discovered": 8212,
      "dÃ´": 8213,
      "ee": 8214,
      "eu": 8215,
      "ex": 8216,
      "ez": 8217,
      "eat": 8218,
      "eight": 8219,
      "every": 8220,
      "eress": 8221,
      "either": 8222,
      "ebr": 8223,
      "egetables": 8224,
      "egy": 8225,
      "eenth": 8226,
      "echoed": 8227,
      "eBook": 8228,
      "ebted": 8229,
      "fo": 8230,
      "fer": 8231,
      "fit": 8232,
      "find": 8233,
      "fated": 8234,
      "father": 8235,
      "fire": 8236,
      "fra": 8237,
      "ften": 8238,
      "fills": 8239,
      "fishing": 8240,
      "fool": 8241,
      "fran": 8242,
      "fisher": 8243,
      "feeling": 8244,
      "fiend": 8245,
      "finished": 8246,
      "falls": 8247,
      "failing": 8248,
      "frica": 8249,
      "gl": 8250,
      "go": 8251,
      "gs": 8252,
      "ger": 8253,
      "gent": 8254,
      "gly": 8255,
      "gher": 8256,
      "gard": 8257,
      "ghed": 8258,
      "give": 8259,
      "gled": 8260,
      "gra": 8261,
      "gue": 8262,
      "gently": 8263,
      "gars": 8264,
      "gences": 8265,
      "gigantic": 8266,
      "givers": 8267,
      "hn": 8268,
      "hs": 8269,
      "has": 8270,
      "had": 8271,
      "hill": 8272,
      "hop": 8273,
      "hib": 8274,
      "hical": 8275,
      "hanced": 8276,
      "hills": 8277,
      "hamed": 8278,
      "human": 8279,
      "hicle": 8280,
      "happy": 8281,
      "ipp": 8282,
      "ige": 8283,
      "ios": 8284,
      "iand": 8285,
      "iers": 8286,
      "ilect": 8287,
      "iary": 8288,
      "ially": 8289,
      "ipl": 8290,
      "iors": 8291,
      "iav": 8292,
      "iently": 8293,
      "iances": 8294,
      "ixed": 8295,
      "iating": 8296,
      "ixt": 8297,
      "ienced": 8298,
      "iences": 8299,
      "ipping": 8300,
      "iatics": 8301,
      "ker": 8302,
      "kes": 8303,
      "kne": 8304,
      "kens": 8305,
      "kland": 8306,
      "krit": 8307,
      "lu": 8308,
      "len": 8309,
      "lore": 8310,
      "lost": 8311,
      "lished": 8312,
      "link": 8313,
      "lude": 8314,
      "little": 8315,
      "looks": 8316,
      "lines": 8317,
      "lusion": 8318,
      "liss": 8319,
      "lerable": 8320,
      "lantic": 8321,
      "listen": 8322,
      "ma": 8323,
      "mer": 8324,
      "mis": 8325,
      "mal": 8326,
      "more": 8327,
      "might": 8328,
      "mous": 8329,
      "mant": 8330,
      "mol": 8331,
      "mine": 8332,
      "mare": 8333,
      "miness": 8334,
      "mates": 8335,
      "morrow": 8336,
      "mpath": 8337,
      "mlet": 8338,
      "master": 8339,
      "mission": 8340,
      "muted": 8341,
      "meral": 8342,
      "mpires": 8343,
      "metry": 8344,
      "mixed": 8345,
      "nn": 8346,
      "nu": 8347,
      "nhe": 8348,
      "nage": 8349,
      "nish": 8350,
      "nings": 8351,
      "nched": 8352,
      "nony": 8353,
      "nants": 8354,
      "nical": 8355,
      "nier": 8356,
      "nify": 8357,
      "nacle": 8358,
      "niless": 8359,
      "ninen": 8360,
      "oil": 8361,
      "oard": 8362,
      "oble": 8363,
      "ollow": 8364,
      "oked": 8365,
      "olet": 8366,
      "obs": 8367,
      "ocked": 8368,
      "ointment": 8369,
      "ooting": 8370,
      "obert": 8371,
      "obey": 8372,
      "oidable": 8373,
      "ohn": 8374,
      "pen": 8375,
      "pes": 8376,
      "pent": 8377,
      "pot": 8378,
      "ply": 8379,
      "prom": 8380,
      "pul": 8381,
      "pea": 8382,
      "pel": 8383,
      "port": 8384,
      "pated": 8385,
      "pire": 8386,
      "pens": 8387,
      "pup": 8388,
      "pread": 8389,
      "poke": 8390,
      "pract": 8391,
      "panish": 8392,
      "piece": 8393,
      "rid": 8394,
      "ram": 8395,
      "rant": 8396,
      "rag": 8397,
      "rast": 8398,
      "rather": 8399,
      "rise": 8400,
      "rite": 8401,
      "rors": 8402,
      "rised": 8403,
      "ranced": 8404,
      "rages": 8405,
      "rued": 8406,
      "rademark": 8407,
      "rupted": 8408,
      "rupt": 8409,
      "rimental": 8410,
      "sq": 8411,
      "sar": 8412,
      "sent": 8413,
      "sch": 8414,
      "shed": 8415,
      "sive": 8416,
      "sile": 8417,
      "sick": 8418,
      "sac": 8419,
      "sledge": 8420,
      "saw": 8421,
      "sister": 8422,
      "sical": 8423,
      "sisted": 8424,
      "sday": 8425,
      "satisf": 8426,
      "shall": 8427,
      "shad": 8428,
      "tw": 8429,
      "ton": 8430,
      "tom": 8431,
      "tel": 8432,
      "tive": 8433,
      "top": 8434,
      "ties": 8435,
      "tless": 8436,
      "tears": 8437,
      "then": 8438,
      "taught": 8439,
      "teen": 8440,
      "toned": 8441,
      "ttering": 8442,
      "taste": 8443,
      "trademark": 8444,
      "uv": 8445,
      "uz": 8446,
      "uation": 8447,
      "uill": 8448,
      "uest": 8449,
      "uity": 8450,
      "uated": 8451,
      "uble": 8452,
      "uise": 8453,
      "uary": 8454,
      "uined": 8455,
      "uised": 8456,
      "uided": 8457,
      "uitive": 8458,
      "ucible": 8459,
      "vis": 8460,
      "van": 8461,
      "vent": 8462,
      "vall": 8463,
      "vate": 8464,
      "vous": 8465,
      "vity": 8466,
      "vating": 8467,
      "viol": 8468,
      "vidence": 8469,
      "vaded": 8470,
      "vassed": 8471,
      "vitable": 8472,
      "varied": 8473,
      "wat": 8474,
      "was": 8475,
      "went": 8476,
      "way": 8477,
      "wind": 8478,
      "worm": 8479,
      "warm": 8480,
      "warr": 8481,
      "wives": 8482,
      "wretched": 8483,
      "washed": 8484,
      "wester": 8485,
      "xim": 8486,
      "xations": 8487,
      "xious": 8488,
      "xicating": 8489,
      "xperience": 8490,
      "yard": 8491,
      "yster": 8492,
      "ypress": 8493,
      "yards": 8494,
      "yrs": 8495,
      "ympath": 8496,
      "yram": 8497,
      "zed": 8498,
      "zer": 8499,
      "zard": 8500,
      "zling": 8501,
      "¨gre": 8502,
      "©liss": 8503,
      "»¿": 8504,
      "Ã¨gre": 8505,
      "Ã©liss": 8506,
      "ï»¿": 8507,
      "Ġ#": 8508,
      "Ġ$": 8509,
      "ĠĠččĊ": 8510,
      "Ġrib": 8511,
      "Ġrifts": 8512,
      "Ġï»¿": 8513,
      "Ġtar": 8514,
      "Ġtut": 8515,
      "Ġtur": 8516,
      "Ġtam": 8517,
      "Ġtard": 8518,
      "Ġtable": 8519,
      "Ġtel": 8520,
      "Ġtap": 8521,
      "Ġtang": 8522,
      "Ġtie": 8523,
      "Ġtert": 8524,
      "Ġtainted": 8525,
      "Ġtack": 8526,
      "Ġtended": 8527,
      "Ġteased": 8528,
      "Ġturm": 8529,
      "Ġtaunt": 8530,
      "Ġtitle": 8531,
      "Ġtenth": 8532,
      "Ġtrod": 8533,
      "Ġay": 8534,
      "Ġaver": 8535,
      "Ġack": 8536,
      "Ġaward": 8537,
      "Ġapt": 8538,
      "Ġaright": 8539,
      "Ġapath": 8540,
      "Ġavenge": 8541,
      "Ġaversion": 8542,
      "Ġavenue": 8543,
      "Ġafra": 8544,
      "Ġapot": 8545,
      "heat": 8546,
      "head": 8547,
      "heard": 8548,
      "hement": 8549,
      "hether": 8550,
      "hets": 8551,
      "hecary": 8552,
      "inest": 8553,
      "inous": 8554,
      "inity": 8555,
      "inious": 8556,
      "insp": 8557,
      "inating": 8558,
      "inately": 8559,
      "inued": 8560,
      "inative": 8561,
      "inacity": 8562,
      "incid": 8563,
      "incl": 8564,
      "inner": 8565,
      "inuing": 8566,
      "innacle": 8567,
      "reed": 8568,
      "requ": 8569,
      "rela": 8570,
      "really": 8571,
      "revenge": 8572,
      "repar": 8573,
      "reamed": 8574,
      "repro": 8575,
      "rending": 8576,
      "regard": 8577,
      "Ġwit": 8578,
      "Ġwan": 8579,
      "Ġwil": 8580,
      "Ġwreat": 8581,
      "Ġwine": 8582,
      "Ġwings": 8583,
      "Ġwise": 8584,
      "Ġwren": 8585,
      "Ġwaking": 8586,
      "Ġwont": 8587,
      "Ġwail": 8588,
      "Ġwars": 8589,
      "Ġwides": 8590,
      "Ġwinged": 8591,
      "Ġwilt": 8592,
      "Ġwestern": 8593,
      "Ġmas": 8594,
      "Ġmic": 8595,
      "Ġmim": 8596,
      "Ġmart": 8597,
      "Ġmap": 8598,
      "Ġmand": 8599,
      "Ġmates": 8600,
      "Ġmaw": 8601,
      "Ġmute": 8602,
      "Ġmix": 8603,
      "Ġmaint": 8604,
      "Ġtheories": 8605,
      "Ġoath": 8606,
      "Ġomen": 8607,
      "Ġogn": 8608,
      "Ġogre": 8609,
      "Ġsed": 8610,
      "Ġsly": 8611,
      "Ġsli": 8612,
      "Ġsall": 8613,
      "Ġsqu": 8614,
      "Ġske": 8615,
      "Ġsci": 8616,
      "Ġsled": 8617,
      "Ġsigh": 8618,
      "Ġsays": 8619,
      "Ġslack": 8620,
      "Ġserve": 8621,
      "Ġsitting": 8622,
      "Ġsighed": 8623,
      "Ġsixt": 8624,
      "ndour": 8625,
      "edy": 8626,
      "ediable": 8627,
      "ersed": 8628,
      "erget": 8629,
      "erately": 8630,
      "erby": 8631,
      "eridge": 8632,
      "erades": 8633,
      "ercial": 8634,
      "erceness": 8635,
      "ata": 8636,
      "atic": 8637,
      "ateness": 8638,
      "atches": 8639,
      "atuation": 8640,
      "oupar": 8641,
      "ougher": 8642,
      "Ġbat": 8643,
      "Ġban": 8644,
      "Ġbred": 8645,
      "Ġbad": 8646,
      "Ġbill": 8647,
      "Ġbour": 8648,
      "Ġbust": 8649,
      "Ġbount": 8650,
      "Ġbath": 8651,
      "Ġbone": 8652,
      "Ġbau": 8653,
      "Ġbark": 8654,
      "Ġbank": 8655,
      "Ġbared": 8656,
      "Ġbraw": 8657,
      "Ġbarr": 8658,
      "Ġbury": 8659,
      "Ġbier": 8660,
      "Ġbinary": 8661,
      "Ġbones": 8662,
      "Ġbowing": 8663,
      "Ġbathed": 8664,
      "eny": 8665,
      "enis": 8666,
      "ensed": 8667,
      "enem": 8668,
      "enary": 8669,
      "enjoy": 8670,
      "encies": 8671,
      "enfor": 8672,
      "ennel": 8673,
      "enounced": 8674,
      "ennu": 8675,
      "Ġfle": 8676,
      "Ġfid": 8677,
      "Ġfest": 8678,
      "Ġfight": 8679,
      "Ġfol": 8680,
      "Ġfount": 8681,
      "Ġfame": 8682,
      "Ġfought": 8683,
      "Ġfret": 8684,
      "Ġfile": 8685,
      "Ġfade": 8686,
      "Ġfanc": 8687,
      "Ġfitter": 8688,
      "Ġfug": 8689,
      "Ġfiles": 8690,
      "Ġfaded": 8691,
      "Ġfitness": 8692,
      "Ġfool": 8693,
      "Ġfitting": 8694,
      "Ġfund": 8695,
      "Ġfester": 8696,
      "Ġfangs": 8697,
      "Ġflagr": 8698,
      "ĠIF": 8699,
      "ĠIMP": 8700,
      "ĠIRS": 8701,
      "ĠIdleness": 8702,
      "Ġhing": 8703,
      "Ġhot": 8704,
      "Ġhind": 8705,
      "Ġhol": 8706,
      "Ġhost": 8707,
      "Ġhang": 8708,
      "Ġhire": 8709,
      "Ġhue": 8710,
      "Ġhovered": 8711,
      "Ġhides": 8712,
      "Ġhangs": 8713,
      "Ġhyp": 8714,
      "Ġhospit": 8715,
      "Ġhyster": 8716,
      "onon": 8717,
      "onies": 8718,
      "onces": 8719,
      "oniz": 8720,
      "oncile": 8721,
      "Ġcit": 8722,
      "Ġcot": 8723,
      "Ġcro": 8724,
      "Ġcad": 8725,
      "Ġcore": 8726,
      "Ġcure": 8727,
      "Ġcard": 8728,
      "Ġcoo": 8729,
      "Ġcem": 8730,
      "Ġcove": 8731,
      "Ġcod": 8732,
      "Ġcook": 8733,
      "Ġcake": 8734,
      "Ġcree": 8735,
      "Ġciv": 8736,
      "Ġcurd": 8737,
      "Ġcave": 8738,
      "Ġcours": 8739,
      "Ġcull": 8740,
      "Ġceas": 8741,
      "Ġcows": 8742,
      "Ġcode": 8743,
      "Ġcaution": 8744,
      "Ġcypress": 8745,
      "isite": 8746,
      "iserate": 8747,
      "isiacal": 8748,
      "ispens": 8749,
      "itor": 8750,
      "itance": 8751,
      "itud": 8752,
      "itled": 8753,
      "itement": 8754,
      "itute": 8755,
      "itives": 8756,
      "iteness": 8757,
      "itulated": 8758,
      "itulation": 8759,
      "itutions": 8760,
      "itiless": 8761,
      "itements": 8762,
      "itchen": 8763,
      "itheat": 8764,
      "Ġdu": 8765,
      "Ġdir": 8766,
      "Ġdome": 8767,
      "Ġdag": 8768,
      "Ġdun": 8769,
      "Ġdig": 8770,
      "Ġdens": 8771,
      "Ġdorm": 8772,
      "Ġdank": 8773,
      "Ġdense": 8774,
      "Ġdates": 8775,
      "Ġdirt": 8776,
      "Ġdross": 8777,
      "Ġdanced": 8778,
      "Ġdial": 8779,
      "Ġdaring": 8780,
      "Ġdiet": 8781,
      "Ġdiversity": 8782,
      "Ġdia": 8783,
      "Ġdancing": 8784,
      "Ġduration": 8785,
      "Ġdinner": 8786,
      "Ġdata": 8787,
      "Ġtoiled": 8788,
      "Ġtokens": 8789,
      "Ġtolerable": 8790,
      "Ġtomorrow": 8791,
      "Ġpor": 8792,
      "Ġpion": 8793,
      "Ġple": 8794,
      "Ġpred": 8795,
      "Ġpad": 8796,
      "Ġpill": 8797,
      "Ġpore": 8798,
      "Ġpour": 8799,
      "Ġpul": 8800,
      "Ġpest": 8801,
      "Ġpall": 8802,
      "Ġpos": 8803,
      "Ġpine": 8804,
      "Ġpig": 8805,
      "Ġpained": 8806,
      "Ġpick": 8807,
      "Ġpink": 8808,
      "Ġpours": 8809,
      "Ġpledge": 8810,
      "Ġpays": 8811,
      "Ġpities": 8812,
      "Ġpages": 8813,
      "Ġposition": 8814,
      "Ġpattered": 8815,
      "Ġpush": 8816,
      "Ġpicked": 8817,
      "Ġpotent": 8818,
      "Ġpulses": 8819,
      "Ġpouring": 8820,
      "Ġpensive": 8821,
      "Ġpearly": 8822,
      "Ġpacing": 8823,
      "Ġpuz": 8824,
      "Ġpyram": 8825,
      "Ġpinnacle": 8826,
      "oring": 8827,
      "orate": 8828,
      "orated": 8829,
      "orations": 8830,
      "oried": 8831,
      "orned": 8832,
      "orical": 8833,
      "orative": 8834,
      "orins": 8835,
      "Ġthither": 8836,
      "Ġthirt": 8837,
      "Ġthresh": 8838,
      "Ġinve": 8839,
      "Ġinest": 8840,
      "Ġinade": 8841,
      "Ġinuring": 8842,
      "Ġinapp": 8843,
      "Ġinmost": 8844,
      "Ġincip": 8845,
      "Ġinval": 8846,
      "Ġinspect": 8847,
      "Ġinasm": 8848,
      "Ġinroad": 8849,
      "Ġinmate": 8850,
      "Ġingen": 8851,
      "Ġingl": 8852,
      "Ġinmates": 8853,
      "anation": 8854,
      "anum": 8855,
      "anne": 8856,
      "antern": 8857,
      "ancholy": 8858,
      "ancial": 8859,
      "anninen": 8860,
      "asive": 8861,
      "assu": 8862,
      "astern": 8863,
      "aration": 8864,
      "aract": 8865,
      "arles": 8866,
      "ingled": 8867,
      "Ġmyri": 8868,
      "Ġnet": 8869,
      "Ġnation": 8870,
      "Ġnine": 8871,
      "Ġnations": 8872,
      "Ġnons": 8873,
      "Ġnets": 8874,
      "Ġnamed": 8875,
      "Ġnupt": 8876,
      "Ġnational": 8877,
      "Ġnameless": 8878,
      "Ġlion": 8879,
      "Ġlur": 8880,
      "Ġlad": 8881,
      "Ġlend": 8882,
      "Ġlig": 8883,
      "Ġlang": 8884,
      "Ġlitt": 8885,
      "Ġlord": 8886,
      "Ġlass": 8887,
      "Ġlaid": 8888,
      "Ġliterary": 8889,
      "Ġlamp": 8890,
      "Ġlamb": 8891,
      "Ġlicked": 8892,
      "Ġlords": 8893,
      "Ġlaud": 8894,
      "Ġlinen": 8895,
      "Ġlids": 8896,
      "Ġlantern": 8897,
      "Ġeul": 8898,
      "Ġecc": 8899,
      "Ġeast": 8900,
      "Ġephe": 8901,
      "Ġelast": 8902,
      "Ġepit": 8903,
      "Ġerect": 8904,
      "Ġechoed": 8905,
      "lls": 8906,
      "llut": 8907,
      "llest": 8908,
      "llied": 8909,
      "llors": 8910,
      "lliant": 8911,
      "omer": 8912,
      "omise": 8913,
      "omething": 8914,
      "omium": 8915,
      "Ġhay": 8916,
      "Ġhare": 8917,
      "Ġhall": 8918,
      "Ġhail": 8919,
      "Ġhalo": 8920,
      "Ġharem": 8921,
      "Ġhaught": 8922,
      "Ġhagg": 8923,
      "Ġhavoc": 8924,
      "Ġhamlet": 8925,
      "Ġhazard": 8926,
      "ico": 8927,
      "icer": 8928,
      "icar": 8929,
      "ication": 8930,
      "icest": 8931,
      "icence": 8932,
      "icted": 8933,
      "ications": 8934,
      "icide": 8935,
      "icade": 8936,
      "iches": 8937,
      "icles": 8938,
      "iceless": 8939,
      "icability": 8940,
      "icule": 8941,
      "icinity": 8942,
      "Ġbending": 8943,
      "Ġreap": 8944,
      "Ġreleas": 8945,
      "Ġrevers": 8946,
      "Ġreread": 8947,
      "Ġrelic": 8948,
      "Ġrecept": 8949,
      "Ġreiter": 8950,
      "Ġrenown": 8951,
      "Ġrevel": 8952,
      "Ġreno": 8953,
      "Ġrekindled": 8954,
      "Ġreassu": 8955,
      "uting": 8956,
      "utch": 8957,
      "utations": 8958,
      "utiful": 8959,
      "uthor": 8960,
      "utterable": 8961,
      "Ġheed": 8962,
      "Ġheal": 8963,
      "Ġhence": 8964,
      "Ġhealed": 8965,
      "Ġheeded": 8966,
      "Ġhedges": 8967,
      "Ġhemis": 8968,
      "lements": 8969,
      "leaved": 8970,
      "lendour": 8971,
      "stle": 8972,
      "stri": 8973,
      "storm": 8974,
      "stition": 8975,
      "staking": 8976,
      "strate": 8977,
      "stream": 8978,
      "stairs": 8979,
      "Ġwhir": 8980,
      "Ġwhal": 8981,
      "Ġwhine": 8982,
      "Ġwhiteness": 8983,
      "veiled": 8984,
      "entment": 8985,
      "entland": 8986,
      "entrated": 8987,
      "entric": 8988,
      "ceability": 8989,
      "cember": 8990,
      "ceasing": 8991,
      "Ġyon": 8992,
      "Ġyard": 8993,
      "Ġyards": 8994,
      "Ġyestern": 8995,
      "otic": 8996,
      "otion": 8997,
      "otted": 8998,
      "othered": 8999,
      "otiation": 9000,
      "seen": 9001,
      "sever": 9002,
      "sellors": 9003,
      "Ġwasting": 9004,
      "Ġmeed": 9005,
      "Ġmelt": 9006,
      "Ġmeandering": 9007,
      "Ġthatch": 9008,
      "ldier": 9009,
      "owning": 9010,
      "urred": 9011,
      "urther": 9012,
      "ursion": 9013,
      "urances": 9014,
      "urably": 9015,
      "uriosity": 9016,
      "urprise": 9017,
      "ursuing": 9018,
      "urrect": 9019,
      "urously": 9020,
      "ursday": 9021,
      "ims": 9022,
      "imen": 9023,
      "imable": 9024,
      "impart": 9025,
      "imbing": 9026,
      "Ġgame": 9027,
      "Ġgos": 9028,
      "Ġgild": 9029,
      "Ġgoss": 9030,
      "Ġgale": 9031,
      "Ġgib": 9032,
      "Ġgross": 9033,
      "Ġgasp": 9034,
      "Ġgiver": 9035,
      "Ġgiant": 9036,
      "Ġgaunt": 9037,
      "Ġgurg": 9038,
      "ction": 9039,
      "ctly": 9040,
      "ctive": 9041,
      "cturn": 9042,
      "ithing": 9043,
      "Ġones": 9044,
      "Ġonwards": 9045,
      "Ġwithhold": 9046,
      "irus": 9047,
[...]
